300
body.stage1.0.0.weight 216 3dbcfa14 3d97eac8 3bb39b3e be0131c2 3e49a7fa 3ea88b67 3e07d3da bd481ebb 3c4ec772 3e28afac bd8b9bb2 bdf1a932 bdc7bef2 3e77178e 3ec07a0f 3e12ce9c 3d02a8a9 3d9a8220 3e603e5e bbf5f709 bd7f8285 be09bb6a 3d18a8ac 3e513cd3 3e3bd6ba bd8a8687 b9c857ac be0a05e6 be1f4009 be94d855 be78ed5d 3e2f51e9 3e20054d be29ca71 3d660d62 3dd8f383 3dceba46 3d9f5340 3cab1043 bc4cfa92 3ea7a77b 3eb82d21 3d45f892 3e0e39c9 3e592b0a 3e7e5e4c 3e2dde16 3e626320 bc864fb0 3d382258 3e004fb0 3e0071d7 bd4b088a 3d4b401d 3cb679c2 bdbba8e5 bc6cf069 bd9731af 3bb61581 bd22ad92 bd94331d 3e12467c 3e2abb90 3d94947d be4ddb7e bde2f0dd be08dc15 3ee62fc5 3f10113b be107393 3f1e7c9f 3f48897d 3dd505a8 3d95daa8 3e371411 3e03b7ae 3e03aee9 3e4af23f 3dbf0cba 3d9cd310 3e6a3de9 3e9d5006 3f176210 3f10c12b 3ef492e1 3f412317 3f2ea210 3eb2d324 3f1647db 3f0fb2ed be186b36 be3e1965 be408023 be3b6cc5 be96261d bea9d2f9 be462ec4 be399217 be682657 be2dfbaa bec17d32 be92cdbf be669682 beff3782 bef5b2ec be2417f3 bea74ab3 beadb99c 3d3cc566 bc3d8568 bccd1def bdf74125 bdde4dfb 3cd0aac0 bcd1a910 bdb4b447 3d9d3271 be1b3154 be2b150e bd84e9fd beb97afc bec9cf1e bdb8ec36 be5c8c03 be8465bb 3b77fa6d bdfd119f be285648 be3228cb be0e1af1 be0f94a9 bda3d467 be4b7c2f be7ec50d bdcc5b8c 3e1cfa09 3d5fc326 3c8e38a9 3e00e68f 3e4f733f 3ebafaaa 3e17dd2d bda22497 3ccaf47c 3df5a77f 3cacdb1b bd882ece 3dce49d3 3e81912b 3ee2a4b4 3ddd39b6 bc538fd5 3e0eeeed bdef9377 bd82baaf be8be8d0 be205fcf 3ddb4e35 3df297e2 bdf3ef85 bd967c77 be097b9d 3e8b6e63 3e2c815d 3e415f33 3e6f631f 3e312f96 3e3eab22 3e8dfaf3 3e205cb9 3e1db3a2 bf0f4d18 bf20d12c bf279034 bf20b72a bf214858 bf258009 bf0de14f bf22f9c2 bf2ac40f 3e882b5d 3eb8910d 3e93b91c 3e99afe1 3f017f38 3ef5bd9b 3e5aef4e 3eb886d3 3ebdbfa6 3ccc1969 3cb236c6 bd612536 3bcaab66 bd9a701a bd4220c7 3c9f6673 bd48655c 3d6a64b0 3c99daf9 3d0754c4 bd2b5800 3cfdb677 bd1ac6c6 3c001332 3cc8c9ed bd6bf762 3d8e566f 3d858cb8 3d7ab413 3c15ada5 3d3edb5d bc032ca5 3d52b2c2 3d82fdec bbd15c17 3dfc1c93
body.stage1.0.1.weight 8 3e8d327d 3df912bb 3e868c19 3f57265b 3e803541 3d9b4168 3f1036ba 3cacdfb8
body.stage1.0.1.bias 8 3ef4977c beded5ab 3f1b4933 bf7f64bf 3f2ccd74 3ed7cfd7 bf166a65 bf16b523
body.stage1.0.1.running_mean 8 c1323733 c1c6cb1a c207b768 4284f2f0 420dfbd9 40dec42d c1c1180c c0fb9091
body.stage1.0.1.running_var 8 463d33c3 46314d84 47146f77 46a01c93 472011fa 46083db6 463512a0 4408bd23
body.stage1.0.1.num_batches_tracked 1 48266200
body.stage1.1.0.weight 72 3ec06603 3eef4e5a 3baa79d9 3e1c8915 3dc27ae6 3cf36941 3e0af843 be547991 3e472434 bde7e43c 3c4dc3e4 3c95dfb5 bdec739b bf5e5e77 be36bc8e be55b24a 3e0f4170 be101406 be630aa8 3ff48006 3e86c484 bd0603c7 be7d79d6 bc3eb184 3de901da be1572ed 3e025838 bdfb51e1 be34649f be250aa9 bdaefac9 bf5d5839 be0d5e35 be08f64b be5c4fdc bc577fc8 3d96aadd bfb73b3c bfde3836 3dfc4485 3f4848c0 3f57eeda bd785c3f 3f2ce743 3f8a0824 3cb3e896 bdcdaa5f 3d87b173 3e01af07 bf51c29e bd029cf6 be463ce0 3d6614dc bdc3776c 3d11b8fa bda59851 3cc73f1f bc5f004a bf3aadc5 be5cf33c 3d32f269 bd8c060c bc52ecd2 3e9554e2 3ed72af7 be19daa1 39be57c7 bd8874ea 3c887eaa 3d83c57c bd68de35 bd900d5c
body.stage1.1.1.weight 8 3ea58e21 3f0cbd03 3ee7c397 3fb5b8bd 3ebce7d9 3f198962 3f63083b 3eebb410
body.stage1.1.1.bias 8 3f260330 bee9516f 3f6efc8e 3df887d2 3f3df0dd bef20cf5 bdd98f49 bed91d40
body.stage1.1.1.running_mean 8 3f1831c3 3d8150c1 3f8824ff 3d83b48d 3e6923df bed1224e 3d05653f bcd6e8b0
body.stage1.1.1.running_var 8 3dedde1c 39a1610a 3e5f1538 3f287423 3d75a209 3bb01ae1 3d311b32 36d0f005
body.stage1.1.1.num_batches_tracked 1 48266200
body.stage1.1.3.weight 128 be8297c0 bdda58a7 bd82444b bc986f5f bf7e3ee0 bd92b21b 3b82083c be2c69bd 3eae8a48 3d782f52 3efaf5df be54fc6e bd885dd1 bdf504e4 3d71f097 3e30cfb8 beb2515d 3d93e57c 3edd36e5 bd37c531 3e8a813e 3c0404db 3d5dbd67 bee39351 3e63e3fe bd27283e bf3530af bd7d7392 3d5bb1e6 3de0d5f6 bd89df8a be692e85 3d080b32 bde79be9 be6f1ad3 3c3fa480 beef3df6 bd085537 3d6a767c be1dbe4e 3e08d58d 3ef1c39e bc9f907c bf510d4f 3be81143 bef7fbc9 3f0d22fa be5c743e 3f07486c bc0ff904 bf032427 bdb4575c be41a9bd 3ce67454 3c2aa3a0 bea49156 3d208621 be0273c6 bd57962b 3f50275b 3d05a429 3c6b82ee 3f4456ba 3cb5ca52 be67f2d3 3d358e04 bf2b8301 bdbc206d 3d347352 3d892a45 3d7a7e69 beb4aa2c 3b14b8d4 3dcaa98e bf31510e be3408bd 3d9e1858 3e6a6b01 3cfe2c59 3c6f0997 3f198e6f be5ed129 3ecfbf92 3d1bf850 bc9d3a11 bd985ff9 bde0a084 3e10a443 3e09a30c be9644e5 3e36690b 3f2fd78a bde66dbc 3e701811 bda7aad8 bd9886ce 3dfc7191 3dc9f88f bb2ef7e9 bf940253 bd0b3e4a bd12262c 3e57b560 3e1e471e bf055f17 bacfdf13 3ee2085c bdaa52b9 be2e99f9 3dcd3be1 bd1a245e 3d53fb41 bd84e93f be070530 bde28795 be5076a2 3cb93801 3dda1f01 bf882beb be048c0d 3e08c435 bd384fa3 beceac94 bd8eeee3 bf9ec455 bc1ea3fe bdae67ea bdbcfaee
body.stage1.1.4.weight 16 3e99bf78 3edd36d5 3d880501 3e39b883 3dc4df8b 3ed708b4 3e9c2e35 3e2ddf97 3e74a9e6 3eefd58b 3e5b4cf1 3ecd5e35 3e311c3b 3dcf6c0f 3ee6cd38 3f17e32d
body.stage1.1.4.bias 16 3ebc406b bf296712 3edb6359 3ef839fc 3f00b4bf 3ebd4f91 3e8f640d 3f0d546f 3f2bd84a bf0f6ba5 3ef97942 be0daaa9 3ef0015c 3ea701d9 3db7d981 bd2d86a6
body.stage1.1.4.running_mean 16 bf7a2e67 3f0e7f4a 3ec43766 befde5cf bf0972e6 be244070 be983a3f 3eaa907e bf4133c1 bf24a058 3f407ad8 3ecce454 beaaf4e7 bdae60a0 be8b8457 bfa06c39
body.stage1.1.4.running_var 16 3dd94bf1 3e01f618 3c6e86c4 3d981c08 3ce04067 3dd24599 3c8d817c 3da3ffa8 3e1f359b 3e096cdc 3e2ab8d3 3d8aeb58 3df5bb2c 3b8e9ed4 3d8f76ba 3e20c34d
body.stage1.1.4.num_batches_tracked 1 48266200
body.stage1.2.0.weight 144 3c4037d5 bd13c4d8 bdf25a06 bdac2ef9 bf1fae8a bd1901fa be84491a bee61dd2 be29006d be4723bb 3e6e3260 bd957905 be0d376d 3df3253e 3ea6d4c3 bbe3cca5 bd0d1524 3ea21308 be2d65ff beb66f1b be3525a8 3eb5476c 3f62a244 3ed3e3f4 be41b7ff bed5909c be0b22e1 bd199b46 3f022ebd beeb4fea bea02f2c 3fa84ab6 bf7bcae4 be312b68 3f690a3e bf30d130 3df49863 3ce4b4d3 3e9f746d bd276a9f 3e33756b 3f25f6d0 bdd93627 3d3026bd bf33aa5c 3d0f92a7 be99aae4 bebd94c0 be9a50f5 3e20d215 3f20c4b8 bebe610a 3e9f2a5c 3f6e2c03 bd73cbfe bec9d32e bf2dcf78 be64b493 3e394873 3f3d7fe2 3e04b724 3e0c09b9 bd7f1c59 bc95a6be be2028da be6b136a be97110e 3dcb7a00 3f07713d be958809 3e83e8a1 3f45a3b0 bf0a7842 3edbc6b2 3e87ba14 bf7c2341 3efcd458 3ec0d6c3 bee5a099 3e4598bc 3dd71ed1 3db6ac7d 3eb8bdcf 3e7a3617 3dc50c8d 3e095bb7 3e214f06 bda74ab5 bea862bb be9e73b2 bde7e817 3efaff4f be0d7aaa 3eedc4c7 bdc4b4d6 bf0d2dc4 3f31300a bed6bb51 bf1fd9d6 beaae336 3e8cc114 3f092329 be0a7717 3e5e3682 3e788771 bde14145 bde9f0ff bea4321e bef3269f 3ee80c6e 3f8c1f90 be62f503 bd9b4721 3eb7d1e1 3dee0252 bf02cda8 bf1ee4a9 3dd8e30b 3e8fe774 bf0acabd bedc026a bdd0a582 3f2936d6 3e0ecf32 3dce9e76 be560933 3da7741d be1ce3ac bec7502b be365abd 3de6b9db 3ecb1d61 bed6af7d 3e6844ba 3f4a99fc bdd5e3eb bf3ef301 bd9bc421 3d8c3153 be452934 bdcdf7be 39973fc1 3dc118f8 3d17e102
body.stage1.2.1.weight 16 3ed1883e 3e3c2387 3ed0db98 3ece03c3 3f039b9e 3eab6931 3ecb1625 3e4e331c 3ecc34de 3e3c8479 3ea0af2d 3e109886 3e77cef0 3e9e90fa 3e00eeae 3f109856
body.stage1.2.1.bias 16 3f31db60 3ea4007d 3edbc941 3f8c6f08 3e719a88 3f32c7ea 3e87191c 3f0eaa2f 3f231eba 3d5b43c8 3f518a5e 3e220c26 3ec6809a bcc41829 3e81d2fa bd55fdc6
body.stage1.2.1.running_mean 16 bf2f0224 bcdb9c85 3db790c9 3d12c6e6 3e6f5103 3e92935c bd90c8e8 3ebe9bca bd809314 bc2d74b1 be168987 3c594995 3d58f27b 3b94af1e 3dc67ff6 bda7a835
body.stage1.2.1.running_var 16 3d9607bb 3b3758aa 3b5674fd 3bd212ac 3bfc57f8 3d93b5e5 3c6ffe22 3c677fc9 3c2a67a7 3b17f0e2 3c0b0941 3b609a93 3b96dc8b 3a23dc5c 3c940ce4 3da10559
body.stage1.2.1.num_batches_tracked 1 48266200
body.stage1.2.3.weight 512 befacdb6 babeb793 ba938370 3d8d9ded bb11fbe2 3c01cc69 bcce1121 bc8caa7f be87c1a0 3e22b915 be8a8f4f bbe6d8c5 bd5093a7 bc077e92 3b1c6244 befbdde5 3c9a003f bde24ea1 3de83c69 3d06905d 3af53f4f bee1f7d7 3d6cdee4 bea3718e be312fb3 3daf2482 3e6a2a07 bc010b14 bcf857e9 3d421c3a be8d319b 3b87d150 bf162dbc bd748056 bec1f14d bd80bfbe bcb36010 3d88af12 3e88d4f5 bdb5a7fc bd4ee41e 3cbff63b 3da5e411 bd08a039 3e1591b7 3da90c85 bcad498a 3e27e7ed bceac3cb bd22012b bcde14fb bc13d5d6 bd48ad4d 3f381314 bc6d371c 3f677a16 3d3402be bd41251c 3e3615d1 3c671ec6 3dbb9fa7 3b25a282 beb390de 3d1312c8 bef653ba bd6d8c4d bda96dc2 be357c4e 3c8c7108 bd1abd05 be0ebe4f 3c6bad22 3e9f4c62 3e7b0287 3ea83129 bd296279 be14e7d5 bdc5bdc6 3c28a298 bea6c40c 3d243ceb 3c6809d9 bd46a50e 3f917000 bc8f4f88 bca4cc3c bd0fd16e 3d16c537 3ebdebc9 bbd2711d 3e27be89 3d65d82a 3cc9ff30 bd55f08c 3d0d9917 bcbbf4fe 3e0ed0b6 3e8ee5d2 3e7254cb 3db733e5 3e78dd49 3d64e1d5 3e9b5623 bd519b3d 3c345e4e 3ef284ce 3cd298ec bc3cb88d be3e79c7 3e1fb97b 3d9809d0 3d10a934 beba674f 3dff6693 3d859a7d bd964ba7 3d996968 3e1e6abd 3ceb1ba3 be11bacc 3e4cd015 3e3dcaa6 3e786aed 3d5405cb 3d169437 3d2dc6da 3d7396e7 bea34234 3cc27319 3ae44ead bd1c3f9e 3cc569a3 bd42c099 3f3c31da 3d091364 bebd9117 bb3b27c3 3ceec6c0 3d718020 bc9713a8 be3812ea 3c932889 bf0f506a bc738eb4 3f01b5f0 3c632263 bcab53b9 bd62bbe9 bdbe0528 3d814891 3dc3ee40 bd94eb67 3e3fbdbc be610058 3e5e15ae 3c8dfbfe bdc7ad6f 3db36294 3d47c671 3ee5270d 3c9f6a55 3c990f18 bc132fbb 3cf2f99f bd21e5dd 3ec82b60 bd0fd4f0 be97a015 bcbfb804 bda99f53 3dd3f8f2 be824b6b 3eb0f90f bc647ca0 3dabe53b bccac8d3 be14b9a7 3c240601 bcefeb51 bd066e1b bedb2d2c bbfcb307 bf6a328a bc5a5929 3c8746e9 bd93b750 bccf4d41 3c81e701 bc7db610 3f24d235 bcce244c 3da56ff4 3d7ca3c0 3d0e1905 3cc7986d bf020def 3caffcb5 bd1345f3 bd773e65 b9fe07a7 3f0263f4 3beffc71 3ef17ded bd389383 bcea0000 3becf2ce 3d3925f3 bd7aecac bd922831 be1595a0 3d508ca8 be3a0148 bf465fa3 3e29b922 3dd53205 bde4338b 3e4e4d7d 3cabdf3d 3d166756 3bd1d0a7 3d251aec bc989251 3cf9084a bd14d90f bd496284 be2f3674 3d154f16 bd10c72d 3dac330e bb8e9481 ba980134 bdf5eb84 3e0b6cd1 befc1c7e bd3e9b28 3ed3f41c bf34c618 bacad8e1 be1a318a 3bf01ab8 3bad37c3 3c2ac77f bd656802 3d5901b8 bedfcb9a 3dfcce94 3e38b65d bdfa1c11 bd7db75c bda37245 3e8f4f17 3d791894 bdbf429a 3d636aa0 bc5ce4d5 3ec7d80e bde939c6 3bf16266 bd34fbbb 3c3778c6 bc8d5ad9 3e449e09 bd33018a be4f9fd4 bd5db4da bdbe1238 3e3ec71d bec1da25 3f3b1741 bd05e4ea 3de2e1ac bd9f1510 bd09f340 3f28a471 bc95c0a3 bd09dbc0 bd67039a 3e49810e 3d85c6bb bdd04a54 3d937528 be5a67e4 bf6eaa27 3ddce628 bd975bdf 3d0a566a 3d97e6cc bd24888e 3d62c130 bd92c3cd 3ca6361a 3ace1910 bc8ec07c 3f0cac97 3d677bf9 bf036394 bc6c5d1b bd01350e bc1fca3d 3e6a7c4f be9d46ac bc8d8354 3ea3c56c 3d50dc4d 3b0053a7 bdff8d0b 3b727e9d bf293046 b9dbaf6d 3cbf2f6a bc6b2887 bd12410a be6196c3 bd5845ab be7d8cd0 3d44ac02 bca7e8de bd89de55 bd00cc14 bcc75f2e beb9e76c be2824a3 3cdeaf99 be01a67b 3cd27087 bd5cdaa3 bda1de47 bce8032a 3e966b3b 3c9b791e 3dc5bfe4 bdad1c27 3e2a3803 bc4d6a6a 3ca23e96 bedf33f6 bd6fcbef 3e04c9c3 3d9a694f 3f9b5c70 3d6b1628 3ca9b1ee 3d7a94c9 bc54149b 3e7120d2 bcdaca69 bd384517 bd0295ff 3da444d3 bc8b74db bc5bce4b bcbe8872 3f0f850b bbfb7b6e bd498b5a 3b308bef bd17963b bc20d03a 3cf7fb14 bbd9e1ab bd996305 be883b34 3c48b4f1 bd10fb11 3de9172e bd9f5c5e bcdb0621 3f1b46b2 bd9308e3 3d1a4687 be26fb23 bc9c3fc6 be5c4298 3e1d16a3 bdde2dce bd4c54e3 bf80920b bd4c2d16 be795d67 3d9048bb bd1d4fbb bcfd5478 bdba24f3 bd8ee0e7 3aecfb61 bd5341ac bb707f30 bdc512fe bd9a6b8e bef11277 3d934443 3ea36b3b 3df0cf95 bd9c45cf be0346c0 3eb40566 bd21231e 3de2d868 3edec987 3d376eae 3eddf144 3eb31957 3d810ded 3ccb22f8 3e0806a0 bda0242c 3e038ea0 bd300c14 bec4eff4 3e11ca05 be46e1c8 3e2c2262 bcacf3ca 3c779fac bcce6350 3e7394bf 3cb562ec be925a57 3d7f3434 bc4b8443 3dba7e6f bf014f12 3cf21d91 3ed53484 3dccc3c2 bde2df5d be2804f4 3e3dacd1 3ccec7db 3d1958e3 bf075e18 3bd075cb 3d5cf39a 3d80567b bf2d8e09 bdc2b347 3f071cb6 3cfd4a84 3da14467 3cd5ab45 3d5f968a 3d6a36ed bd5ce6c4 3d9f4bcb bc6f0613 bd07f503 bd829d84 be83d9cb 3ea06305 3e2755db bc8135d8 beaaaf5a be0a6be3 bcf8b0b1 3e384c5b bdeaa522 3df55985 bd95d192 3efc6419 bd345910 bd70aed9 bcc66dc0 3d2a8597 3e24833d 3d8f1624 3cb7467a 3f8241fd bc6553fa be07ef43 bd2b0d96 3e19dc12 bc3bbabc 39e930d4 bdb9d169 3d81fc9e 3c6bc08b 3d9864d4 bd9539cc bc8b8c7c 3d3e73c1 3c297023 bd05b186 bf4530f9 3dd4e904 3e939f62 be2d2cbf 3ef0bf29 bd3bd688 3d46b9e9 bdfaf783 3d826374 3d41fe84 3e2717c1 3e877e57 3cb38a5b 3e20d128 3e3e9ea8 bca4bc8c 3d698e6f beae2077 3e31ff31 bcfc504d 3dbf8136 3c6b4b41 3e1c9817 3d6d816e be5d2dfa 3ca15a56 bcd824e3 3e0f2765 bd705c5e bec56e57
body.stage1.2.4.weight 32 3dee2800 3e9282cb 3df6310e 3ec63f43 3dbcb8a4 3d56cfa8 3e7bd6ee 3e815d3c 3e6f39b7 3daa8e28 3d9c6248 3f104400 3e9309fb 3e33a15e 3e92b968 3de2da90 3e98e6db 3d9b9ce5 3e278547 3e0d3d33 3ea66489 3d23ee48 3e8c2a43 3e9d4d2a 3e7a8b6d 3e982dc0 3dd31f78 3e270a21 3e05dfd7 3ee3ac7d 3e29eb2a 3e008633
body.stage1.2.4.bias 32 3eb4ac8d bdd35341 3ea6a803 3e5b3ecd 3ed9fb8f 3e9a4675 3dceee2e 3e46f600 3ec1edac 3ee21c11 3eb9cf87 3dca8645 3e88e220 3ea0a6be 3e30cd4b 3eafbb9e 3e619da7 3efb0180 3e9bb5b7 3ea6b0dc bd076817 3ea45d72 3d889ddb 3eb3bea4 bef9debf 3e3a7918 3f2da525 3e98c815 3ea20c86 3cab8673 3e9b8133 3e8d3d6f
body.stage1.2.4.running_mean 32 bf3ce44c becc5991 bf01ee8c 3f875cc9 be86c264 3fd52e09 3f170212 3e0f5453 3e2508bc 3f1badc7 3ea08b06 bf1026e2 3e2b5162 be79586b becbca15 3e345eaf 3e8dd47c bf02a05d 3dee75a7 bf92a372 be67fd97 3fc82531 3ecbdf56 bf854ca8 be1a253a 3df0e525 bea17f0b be36d45b 3e99bb99 3f0d54b6 3ce4f0ba be93464f
body.stage1.2.4.running_var 32 3d7a8df9 3d21659e 3d96b9b0 3d83cd86 3d83806d 3dad1962 3c8c442b 3d197167 3d9d197a 3d7d404f 3d373668 3d7fb577 3db91f37 3d8f1a2c 3d008688 3d5925b2 3d4179c5 3e1f2e1e 3d58318e 3d02fe86 3d444016 3dbe06ff 3d7484f6 3e18c45a 3d6a619b 3d641b75 3d8a0b3c 3dc52314 3d6415ec 3de5f575 3dc717c6 3d24038f
body.stage1.2.4.num_batches_tracked 1 48266200
body.stage1.3.0.weight 288 be8d1ab1 beaa2a61 3cf17c80 be0de8d3 be0c09d7 3f07669f bdae000a 3eb035b8 3e82bac2 bc8d4809 bdc27522 3e52fb5a be0b9e93 beb5b3e7 bdf1e50b 3d12e969 bddc12d6 3df5bf34 bd18cc8d be97ebb3 bdf362b1 3e6a7cc0 3f2900f8 3e3f036a 3dd985cf bdfa208a 3d80e310 3efb8798 3ee18705 bec0c86c 3ec6df49 3f3002f5 be2ba0ce bf008c63 befa361c 3e008bd6 3e0f336f beabb1cb be02b6ea 3df2dabc 3f2b0d6e bf2cdf03 3e4664fc 3eb724b4 be28c7de 3c7d8f4d bc99542c bda60866 3d322063 3f5c2ca5 be42a6bd 3c246c2c 3dbf44aa bdb2a45e 3e6da2f6 bd96047c 3e5a0e8e bd5cd655 bf147943 3c747004 3da33f92 bea7c407 3df5307a bc5150f9 3e6760c4 3e643bfb beba5003 3ebe71af 3e29e5c8 bd73e502 bf142f25 bd2aeb4b bdd9096c bec66d6b 3e9d650d bea03bcb bf26036c 3ed24407 3e085de2 3f123a88 bd781ab9 be3f9124 be22742f 3deabc63 beadbe5c bf01a113 3f429f06 bd7d739a 3e3b3fa7 3e0483df 3e38241f be859af6 3de8bde6 3e6be3ff bf342e1d 3eda7a7f bda753c4 be01b9ee 3e838bfc 3c29c13d bd8c8352 3d3e7d20 bc7cc064 3f4064c0 bf3ce3d5 3cafff48 bdc22fa3 3db92906 be07c438 3e6b0d0f 3dc098be bf31ce4d bcf084c1 3e44808b be4403f1 bd4ca885 3ddb4b8b 3ef99c81 bf008700 3ce530ab befec20a 3ecefe77 3e203e58 bdec73fe 3e17186d bccb3d7b bd1dbf7b bf1f2e42 3d9b59e6 3d08e329 3efb3917 be43eeda 3e1d7258 3f2af757 be6f6fd6 3e02d884 3f1dff89 3dc3b832 be3a3bfb beb7aade be05e8f2 bdcbc59e bd93aedd bd69123f 3dfc99ed bef26e9d bd2bd526 3e848bc3 3f084317 bf1ad5ee 3d4576fe 3ec37925 be8c2de1 bd88ab85 bdd9ca65 bd9e009a 3f188dc3 3f01ad4c bd15f820 3e363ee9 3e06c93a be1669dd 3d945881 3f1089fc 3d8a2345 3eca57bd 3e7563ac be6d987d bebed83c bf1624e0 bdfdb451 bd105630 bd706b10 3ed6bc2e 3d7d1d3e 3cff571d bf4b7f5f bc9f0506 3da78a27 3ea8bfb8 3cf5cc45 be285985 bb6d5c4b 3dbedc59 bf11d622 3ce5ed39 bc39280f bda070c9 be225cc1 3d4a851a 3d49bf0a 3dd1b562 3c130dd7 bf658ec6 be342247 3d74accc be07b569 3d88e773 bc2d4f96 3e66039c 3e04ff80 3c3e6097 3ed7aa20 bd0ac5b3 bd2ef9cf 3d2019ab 3da5846f 3d4677b9 3d1cd347 bd9474ab 3c558c28 3f48c438 bf38a0cf 3d4fba5e 3e16a6b3 be8bdd0f bd975324 bd58839d bd3c172e be512b11 bec73bc6 bbd1585a 3ca82aa8 3d57f1e4 bce9809e be45e743 bef7431d be5f6000 bd8d277a 3f38c2f2 be130712 3e28d628 3e6477f7 bdfa8665 be8fa7e9 be7ded0e 3e2f10e2 be756f73 bee2ea2d bdaa247d 3cdb6bef bd178988 bd57906d 3dedb966 bf317e6f bb073ca1 bde47b16 3d61e322 bda58c3a 3d513b89 bbb5daf6 3da4ae2a 3dea4ab6 bcc57bc2 bd3b78aa be587fb6 3f55259b bf1fc6e9 bdf5930a 3e1a88fb bd8df7a9 3d6f7dbf be2e330c bc8c12d3 3e401245 bf257595 bdd30d16 3d3c80df bd4a68b2 3c6e2356 3d97b12f 3eb4bf4d 3e144cfb bdb17710 3f2a3724 bd1ba809 bd39aeff bc9ca6bd 3c6aa9a4 bbdcd6ba be9bcf57 3d7b9907 be1ca964 3f31293f beb47db8 3c46f70b be02f643 3dc56d4c
body.stage1.3.1.weight 32 3ee41765 bd0dd56c 3ee67088 3e626ee8 3f09536a 3ebe4bc0 3e416fd4 3ec8459b 3d5ddc98 3f20a7f9 3ea1594b 3f050876 3f233ab5 3e9a03c3 3e947291 3f139680 3ec24c73 3e70a40a 3eaaa1a5 3ed0fbfc 3e7ac088 3ee92210 3eccaaa2 3f3f431f 3e4bfa7a 3f15ae24 3e8f6a32 3e94a049 3efc1cf6 3e971b51 3eacb840 3eb78348
body.stage1.3.1.bias 32 3ecc292e 3f0fc9f0 3e86c502 3f042afd 3e622bdb 3c7964d1 3f106738 3e856817 3f75b561 3ea35894 bd1ca654 3c91b466 3ee70c07 3f6ef5b1 3b9aa598 3e178734 bd27a714 3f197799 bdc5d218 bd86dc37 3f22dd0f bcb9d530 bd459e58 3e42a35d 3e549e95 3dcc83dd 3e1c3636 3f07488f 3c21af8b 3f5dda2f 3e46e9f7 be0713b1
body.stage1.3.1.running_mean 32 3d8a56b4 bc5a41bf 3e60c769 3e18481e 3d9b39db 3e47710d bd423389 bc86590f bd1c1f63 bcfea2b5 3c22a463 3c588deb be087a91 3ccc4a9a 3d98303a bcafa6b0 bc3d27fc 3ef59264 3c10f787 3b4b9496 bd5954d1 be8fa94e 3dcc3be6 3b8bd7c4 3cff2f1c bce460a7 bf4d05b7 be3907da 3bd7ce4a bd8e483d 3ea7caee bca77a4b
body.stage1.3.1.running_var 32 3c31579a 3b256b3b 3c648da7 3d9a253f 3c203f31 3b21f4ab 3c8b85e4 3cd0a092 3c14e3c9 3bbc42be 3a9c6853 3d94feac 3d7b36b0 3bb9b7db 3c9c55a6 3c3a90e8 3cc0577a 3bc6ef29 3c4b24cc 3b8749b1 3ceb6045 3ab7ed89 3c88414e 3cf4c5de 3ae309c2 3d06d821 3c659b12 3beda181 3c0472f7 3d4bcf38 3c3283cd 3b5626f6
body.stage1.3.1.num_batches_tracked 1 48266200
body.stage1.3.3.weight 1024 bd20cb92 3e7bc6d7 3cda328a 3f827090 3d81ed0d bb6673db be06ad77 bd79a2f4 3d6bd780 bdfdcc68 3d98a645 3bc1a464 bbfab1ff 3c39ad88 bc6c56da bc21eb0f 3d13cfb2 be6d91a3 3ceb4265 3cb4d3e7 3d22fb30 bbbb7d12 bcb5d90a 3c86efd4 be57ed68 be14b67e be480059 3d1f7218 3b93e5e1 bd84cc1e 3b8f2c6d 3d5dd07b bd04305b bc5fa6e0 3d870739 3cb65c21 3e850a42 3d7dcdb2 3c3a3c1c be8219bd 3e69cbfc be387646 3eae9220 3bca6310 bdfe973b bd9a70e2 3ef069b0 3d4d0658 bf0c821f be1c8ce4 be3b113b 3b92ad3f bcefecb1 bd50a397 bcaa817b be817b5b 3db69a56 bebc448d bdccd977 3d87149f 3df1d8e4 3d52eda6 3d05fd09 bdebd672 bdb23058 3d9615f0 3dc3c208 3c268ac0 bda1ac8e 3cb1f53d bc68e550 bd5b293c bd67d2a4 bdf395aa 3da8e198 bd160171 bbe3fa15 bddc973d 3c6e4fe0 bf011aa8 3c5278e0 3ab621fb bc10101a 3ce5aa00 3db14cd3 3ccdc151 3be3658c 3c6e8d2d 3d32b3db bde77689 3d2aa286 bf3bb7d3 bd3365f9 be102a24 3f555ec3 bde8f297 3df3027e bd8d73a4 3e1743f5 baa61d12 3d4b0d7a 3db4c55a be313b30 3daf751b 3e094b5d 3e131eb7 bd1ca6bd 3bfc9268 3dec8b50 3d299ef5 3d08a396 3d01a6d1 bb779124 3e3ddbc4 3cb3f3c5 3d81a87d bd69c6b8 3d9030c5 3e9a60bc 3c4ec60b 3dbe843f 3e96ebe3 be1b80a0 3d31efd6 3ce2f493 be960c28 3de7ade1 3e4ba5b3 3e0fc850 bdeb9a71 3dd38fa6 3dc6be14 3ddf3288 3e4290b2 be56845d bddeb1d5 3c4f3245 3d891d2b 3c0103f2 3cc955b4 be715bf2 b9edeb99 3dda4d43 3e01b7d2 3db3042f be6a2f43 3dcb1e7f 3d8aa3d8 be520e43 3e00200d 3e8d959d bdd8553f bd1bb786 3e1390e8 3ddcc86c 3a2e1589 bd199976 be2f6097 3d93e767 3e189566 be56121e bd697a91 ba8a61f6 3ca5ead5 3d916e2e bcd8253a bd19d9c4 3cec77c8 bb84e424 be4ca067 be3f60b3 bd979a02 bebed8b8 bcda08e6 bd7780e4 3bc6a514 bcea414d bc3fcddd bd047ddc bc289b8c be62f833 be51c574 bdb4ef98 beb9a699 bcb0ee75 bdca02b7 3b988dd1 bdfc8e2d 3de693f0 3dd7965b bdd3818b bd81328f 3ccfbac7 3cfdd251 be8b7c26 bd0e08a2 beb46bf9 beb02b84 3cc8c7c2 3f0079e2 bd1aa623 bf279b84 bc7e2e0f bd303cb8 3e6aa7aa bee24d7f 3cb33460 bd7417da bd594725 3ce5c474 bde370ed 3d521d46 be60880f bdf18a9c 3cf7a9f2 3db4de63 bd32db29 3d6ff140 be06a492 be5fa34e be4dd06a 3d99c935 be500a41 3eaa9bea 3e4291cf bc7e31f1 be052fb1 3e01b025 3e42e039 bd482d41 bd85b84b bec74bd2 bebdc39b bd11d761 bcda740b bca06fa7 be26007e bd8451cd bedf44fd bdc8a009 3eabb7e1 bdf26317 3dd9048a bc0dc1cf 3da078a0 be1ca03f be555206 be2b0c55 be31be61 beae2287 3d9ebdcf 3d4698eb be0586c3 3e208cbc bd454f52 bd75e52b be66bff5 3e2ca7db 3ca97ccf 3f3ae4ea be4d8d61 bd039be3 3d1ee91d 3d8993fb be16c41d bc9c7933 bdcb6aa8 bc8dc5ff bdac82c9 bc5c2188 3e240461 bcdf3547 3e7d1d2e 3e9c75e4 3d823036 3ce7b9a5 3c186eeb 3a963e20 3e0ea319 3b821e8d 3da0a2b5 3bb3f0b0 beeae49c bc934259 bcc5c4ef 3b215e96 bd8a1130 bcda6d0b bdb31911 3c41d4e0 bcac7d08 3e2c444b bec25417 bd11664d 3d23c4f7 3e188102 be9380a5 3daa3d2d 3e43bbfa bd8b6406 bcebd4d3 3d097bd8 beb4e193 bc5fef62 3ef66759 3c7375ee 3e46e2aa 3c8785c9 3dc43604 bd33895a bde45f35 bdbd87a3 bc5b0f0f bc52da7a 3e5dd436 3cda4560 bce95f84 3e1c5cbc bdfd0ff9 bdc9427a be2bad11 3ecc84f4 be042f5c 3d7cb297 bdb45f0a 3db6e972 3f07f367 bc9924cd 3db17189 bdf75726 3dbad24e ba1ac0d5 bd42e1c9 bd425087 bddd6e92 3cb14569 3e381115 3f49a43e be1cf281 3c7dabda 3e264de3 3dc4d5d7 bece3a2d 3de3458a beb221cd be4d689b be22e2c5 3db984df 3c9d53d2 3ea1af2f ba7b5fc9 be10d5ba 3c1fd8e4 be3154df bdd601ae 3c92f720 be4e08be 3defc258 be8b5562 3db80bc6 3c9ccc5f bc03fee0 bca3f8c6 3d0c15ab 3dfb0b37 3d494d29 3da3e624 bd571f21 3d678f30 3eb7551e 3d359e4c 3d17b8ca 3e4f4f30 3e0252f0 bf00988a 3e3c12f7 3d7fbc24 3f3950da 3d26e117 bdb63e94 3e788efd be4acd4e 3d9d2093 3ea66b5b bda8212f be80d957 bd78d33a bdb8b73f 3e6d5947 3f11c0f4 bd8ba343 3c2f634a be44ea67 bd0cf55e 3ec9946a 3cff05db bec53f24 bda45c0d be1348a7 3d5ebc5d 3d560c60 be063ab5 bdfc187e 3d33d213 3e855079 3ec4bf44 bd6e0ae2 3eca5dae 3de7a976 bdcfa16a 3e2e8f5d bdb14843 3eeb5d54 3df201de bdbb6f50 be13e28f beceac7e bdbc3149 bed672c1 3b2a211f be4f71b0 bde4ee52 3dab2013 3e8627f0 3c883e2b 3e256ad7 3c84d5b6 bda1092d be53876c bcd4a5ac 3ade5d9b 3d7058c1 bda169f4 bc9f2612 3c266bca bdf8af13 3d8f7aca be0e9b7e 3d464775 be221095 bc87f8c4 3dea5b82 bc75ad9f be3be2fb be0ada5e 3c9aa12a be174ac4 3d75930b bea70b09 3cc658a5 3de1c38c 3bbea719 3ef0ef3f bde5e403 3dadcb1b 3d4814fa bdbe6cec 3e77b37d be0b648b bd094c41 be955435 3f011d21 bdfe644b bceebe45 3e0344fe 3d0fbe4e bd0e8dfe 3cd12ded bdda694b be72009c bdc426ae bf06a279 3da2331a beb8f5a7 bd0b4dc4 3e9e2651 bdaeb46e 3e61ea30 3d09d4c2 3ef7d7c2 3e65a0d2 3ddb78bf 3f38f2d4 3bb74bab 3c0248b2 bd8801d8 bd10a653 bc7ac80c 3e0930c8 bd8066f7 bd3397a8 3b09b052 3db278ba 3dad893e 3d4a0269 3f5d1226 bcfadd0b bd711e6b 3e389983 3db652d6 bdc02641 bdd6d066 bce6255d 3d3fed3c 3e046327 be444fd6 bd64c5e3 3e7404c4 bd5c6367 bc905580 bd91819a 3d875d82 be16fd02 b9420718 bf201cf6 bcd6e032 be42927a bcd708ad bdc1eec8 3d9ae7c2 bcefd73f bdaa9430 3da8b12e 3e3076d0 bc0cd8dc bcd0e196 3bc3016d 3e8c7799 bd8e6d25 3d9b7ef5 bdc27ba3 bcb11a74 bd31243f 3d9effa6 be53e40f bdb94866 3c7bf3c3 3c9f4a7b 3ddcc008 3ebeb578 bd8e1783 bf55c06e bed62530 bd9d1fb8 3ca1cc4c bcc1cd0d bd311a6b 3db14184 bdc04958 bc878014 3d2fae0c bcaeeb6c bc53eaa8 3d57393e bd4ab0f2 3ed31b3e 3e02d346 bf238166 3d4143ca bd1d8305 bd000324 3cd3db45 3c481588 3f63c04d bd5b92a8 be116695 b9d7e7df bd17954e bd785b16 bccdc0b4 3cb39899 3e536c02 be3c9fe6 3d3875b2 3e33d0c5 3e21330e be610571 bc8cc4d7 beb23921 bd7f7714 bd74e207 bee293cd 3d23192f be5987d3 ba0760da 3f18401f 3d52b760 3d9d2dc7 3cf9eb5e 3f3a2e58 bcd285e5 3d53b21d be214ec7 bd3ebfc9 3d5bf23c 3d40adcc 3ee2ad63 bdd74bcf bcd1c156 3e02b373 bd877176 bdc33a06 bde9bf0a be09b656 3eb4a4f9 3d43d106 be9e1a5e 3e645e82 bdd8f6e3 bcf1dd1e 3d4d3a90 bd6c72bb be97ed32 bd834315 3c876ef9 bc0e367f bcae506e bd48f154 3d7d608d bc3b3381 3ec0e8fa 3cada7bc 3d226c70 bd0e24e1 bd408026 3e82b644 bcef9852 3cc5a4ca 3e096363 bc0827bd 3e097d26 3e9b376b bd8650a1 3bfb391a bd02af2c 3d590f3d 3bbc49a8 bd0ff39c bac2c9f6 3d04f9b5 bd23ba69 3cfb3a82 bd6bb0c0 bc062b0d bd8ef024 be17b130 bd8f8100 bc807eb4 3d261f2d bde19e64 3c359ccb 3f964d59 3ca85e74 3d79a09c bbe87ea5 bd3fbbdb 3c246aad bc9f956b bd17726a be3bb00f 3b9eb626 3ce30304 bd383fb9 bd991d2b 3d846755 bd4e715a bab57d6e bb869926 be1d7b2b 3ea146ff 3ce7ca3b be2b05ac bc0d03c4 bdb20124 3c8d7638 be929227 bd1522d8 bd18a63b be498890 bd861da9 3f291291 bddc2d89 3ddcfa6a bcafd1ff 3c74562c bcc78a63 3ebbe822 3c8be798 3ebe5b9b 3d8a3ded 3f1fb2c1 3bc2b799 3cb9a7a7 bca63563 bcac2692 3df02fb8 bef2b231 bd1e5491 3ebd0862 bcaf740c 3d764783 bd4ba02d bd07f8e9 3cdde04e 3f03c08d 3d08314e bd11f3d9 bc5c214b becb7d94 bdcf2dc8 3cafaa71 3e8115c6 bd175f26 bf17ead2 bd87dde4 bd7eb714 beace409 bdf9531f be1ff773 be4b6101 bb4a346a 3d0d666e 39265684 bdc9cada bcf7761e bea52cb5 bdd8cce5 bef5b549 bd2a496d bd6ad4ee bc3493b1 3c056709 3e4f0af3 3dabfa31 bd83fb96 be636cbf bea591a3 3d7995af bdf6b386 3da41d2d be249175 bca11b66 bb8a5aa9 3e2c0978 3cf5bb94 3d83866d bc6a2f24 3c2c9b9c bcbeb076 bd00a1ed 3cd76068 3ca41ccd bbab4aee 3dc341ba 3bfec1d1 bcfe9457 3d143d91 bd2297bf 3d84a108 bd9a8a7c bcc44687 3e27764b 3b8493d8 bd7d6d45 bdb95f00 3e219354 bb56352d 3de0e16f 3e846e70 bd513a63 bc067004 bd16c29d 3daeec8d 3d3ab0be 3c0d4b94 be6d4148 3e73f722 bdd2cbde bda9ff96 bcaa6d30 3cb3a06d 3ca4b255 3e02214b 3d248396 3e0120f8 bf5dc0bf be098181 bcf27135 3d4ee754 3c1a5b53 be37b273 bd931af3 bef73aa8 3e1ee619 bf3b6cd3 3d3b4472 bce088fd 3cccdac0 3c5192d4 bc405ba9 3d345534 3dc0f7ed bb456c5f 3ea9f76c bca7e24c 3cf2dd88 be0f99cf bd09e974 bf395bd7 bb303508 bd8eac64 babd9e93 3ba3b31f 3c8c8fba bd78e860 3ccdb4be 3e0f3276 bccde8d3 3ea91f2a 3d75df58 bb84c882 3d5e0b17 be1c2201 bcf66075 3f217b1b bdc07680 3e27791f 3bc36c16 3d0fd772 3bc28978 3ce98c70 3d3a29b8 bdd148f6 b9ed0703 bd8af641 3deac88b 3d53a3d9 3e424ec4 3d8208d3 bd027930 3b4bddbc bdd91508 be418fbc bc993af8 3f114004 bd0f2c84 3d4e72e0 bc2240a3 bd729046 3cf85901 bc932931 bd930f6b bdb7a91f 3ea2d8d0 3d03fcc3 bf7b3b5c bdaefdc0 bdf22d97 3e1e3461 be1483cf be1e7b93 3d0b27f4 bdfc1267 bcd0982c bedfc407 bd3a1f63 3df6c004 be858f5a be7639c0 3db0bba4 be1fcd99 3e4a80c9 3ea9eaf0 3e12debe 3d202800 3d7c89bf 3e105aa8 3d00c4eb 3e9c0d56 3d74a011 beceda70 3d1be6cb bead7bb4 3c1f040b bdb4dae8 3d30c508 3cd8e102 3dfe244e 3d995012 3d43ee4c bdc3ccdc bd341c4c 3df16b16 bda14d47 bd699dca 3db80130 bd1d7ac6 bd6462cb bd7f2c16 bda2059d beae86ae bdcbcf8b 3d1dff8b bcc0667b bdb0d0f9 3d25386a 3d6abc16 3c60178f 3f17c30f 3cf22abf bdd21e40 bdfacf1b bdcd686e 3d863118 be1e7003 be140656 3e839d5d bca9bc03 bc634593 3e87dab5 bd407fae bc6ffc97 bdc6a84c bb2e8ea9 bcfe026f 3db9cfa1 bded831c bd3566bc beba98e0 3e19f3a4 bdb1cabd bc0028b9 be46d326 3c922997 bd8fa4f4 3e634dc0 3d34aceb 3d9e904e bc2006e7 bc035ced bc9b0039 bd0134fa 3db90393 bb9b0083 bbc9de5e 3e01d048 bd16ff8d bd383874 3e573fc2 3b8e29f1 3e6a1140 3d380452 3dc385e2 3d7cbbc4 bd13ce7f 3d03881a bd1a69b6 3ebff048 be5a7008 bc465fb9 3e1e6109 bec3d717 3e007dd3 be637962 3d8bdd93 3d934282 be37ecf2 3dd24f03 3e093e28 3e81caf8 be0a3866 3d5d93ad 3bc71c17 3cd54602 3d41445e 3e02561e 3b9c00bd 3f2f0fea 3d469e96 3dc05c2f be75de94 3da2f10a 3f12a749 bded9341 be372bee 3d9f6b87 bedad139 bd77d56f bd6b2f9e bebcedf0 3e047811 3ce4839a bd3f1788 be475ed2 bd2c8047 bdb11f02 be0eed24 bf7e6f92 3e138ebe 3bd692ae ba0dfd3b bc669873 be792bb5 bd1ee489 3e6e307a 3d25b0c3 3cc1f901 baed6023 bc744b19 3deca0ee 3db05263 bdaff57e 3eb3d296 bf18cd84 3cac50e1 bead5de3 bc928f22 bc5c51e5 3d50c1c8 3d21963f bf1e29a7 bccd7203 3d2b78e5 bd93b958
body.stage1.3.4.weight 32 3eb94475 3f04cb68 3eeb8f22 3d6f7e61 3e1d64b5 3e725728 3ef71460 3ecaf967 3e875cb4 3ec0cfab 3ea7d485 3ed58c55 3ebdd8b5 3e933806 3f050e48 3ee492f1 3ef8d911 3ed67c2d 3f09d218 3e10536b 3f1eac92 3ebbc39c 3f0d9ad7 3df59642 3de9efa6 3efbcbf1 3eff7a11 3ed43751 3e9e4967 3e1790ad 3e77aa58 3e9303b6
body.stage1.3.4.bias 32 3dc5b8a7 bd8ec722 bd917716 3e3cf02e 3ea4a332 3e425249 be4a5be9 3e154684 3ea207c2 bbd4782d 3ee6f7ec 3e187aa2 3e4bdda4 be366994 be233e03 3d042dc8 3bb0b190 3b5afd4b bda491bc 3e7eb27e 3df7972f 3da730b8 be411311 3e4e3c40 3f0ec524 be136738 bd7242ed 3cff0d5e 3d633145 3e872d92 3ef74151 3e6df68c
body.stage1.3.4.running_mean 32 3ead723e bdece06d bf1f0c21 3e8ff4aa bed1c8cc bf3a21ea bf62ceca bf208ea8 3e9463b4 bd4a8d03 3f923276 3e51ba6f be8c1133 bef844e4 3ef8cb88 3f4c1efc bf8155d5 be9c8ac8 3f46e3a6 3ea9c111 3e8ef574 3e9642dd bf123ce3 3dd8db5f bedb10cc bebf1613 be2d5318 3c81940e 3e9ed66b 3ef22a56 bded3995 3bf84a46
body.stage1.3.4.running_var 32 3d5b093b 3e4abbe3 3de6ab03 3da78b4a 3dabd64e 3e15790a 3e6ed4a2 3e4d8c37 3d71facb 3da2b8b9 3dd8a73d 3e866a82 3e091630 3e300306 3e911b3a 3e98a067 3e02ec53 3e048670 3e8b31cf 3df07c66 3e5f5569 3d502f4d 3ed7a335 3d84df86 3e06a900 3d5decde 3e628a8e 3e2e676c 3e3ee332 3dacd0b9 3deb77c1 3e8607e0
body.stage1.3.4.num_batches_tracked 1 48266200
body.stage1.4.0.weight 288 3da1ac11 3dd31ca9 3da863b5 3de0cc0a 3e83256b 3e520c2c 3e00782a 3e7899ad 3e451620 bdcf9f53 be038e63 bdce3b61 be384ef8 be8b1437 be4c6370 be19f2ff be4096f5 be085c57 3d6bbee6 3dbf0bf3 3d84ee4a 3e521845 3ebd80d2 3e8bf27e 3e548b2b 3ebf7d2f 3e7b488d 3e329fdd 3bfaa1fe be5afff8 3e7907e9 3dab2301 beba6d31 3e2a3633 3dae33d6 be7e84af be46759f bdaced99 3ca87997 bea71320 bdfce11f 3e23f7b7 be8fc653 be09864c 3e384cc1 bd22871d be09086e be2399e7 bdb4a71e be3434a5 beab67bb bdae8d20 be16e461 be766390 3dc818b8 3e3e5a3e 3e036d3c 3e33a2a7 3ec5ff97 3e8f67cc 3dc8d4a5 3e9dba69 3e6786db bd5a016d be2ceffc be366c75 be09fddd be57d31c be1de268 be7d6a59 be6d3085 be006f06 bd53f8ab bdace427 bd476c73 bdee9abc be8b3543 be65cc74 bda6b981 be5a06fd be20e9b4 bdaddf83 be185e4f be11e546 be3163f3 be517249 be187849 be2208bc be201bba bd7d50f2 be03e8c1 be367331 be0d6f28 be530091 bec0d8b2 be6fc60e be12a8fa be6a8a47 be54a9b6 3dd3e398 3e8290e7 3e2aa0a1 3e1c2cad 3ec9d100 3e9ff125 3e04c8bc 3e82ee11 3e4b04bc 3e20fbb0 3e6668a6 3dbaf53e 3e4fd3ba 3eb912fe 3e46fd03 3e0b93e7 3e92b702 3e2ea2ee 3de7aecb 3d6f0fc7 3dbfac0a 3e264ded 3e69cce9 3e57d4ce 3db2303a 3e219ee5 3e51b02d 3e171c2b 3e46119c 3dd14614 3e903728 3ed78e62 3e8224ad 3e4dea56 3e98e78d 3e31231d 3e270263 3e24acd6 3de16670 3e87cf4c 3ed39bad 3e914a93 3e0030ba 3e94f4d6 3e6d04de 3d884ce1 3dffe667 3dd7507c 3e5122b1 3ed5bed3 3e911436 3dff9bc1 3e8f9716 3e5a78e6 bdad668f be2633e1 bdd91078 be4e2ba5 bebe64c4 be506587 be20ecb9 be8b3e89 bde56330 3e0d4d5e 3e86124e 3e43accd 3e817cef 3ed7e640 3ea60252 3e297e2d 3e7c36fe 3e2a80ba be0cdd5f be594c6d 3dd6a015 3d5f870c beb9180b 3e53fcb6 3d80ba8a be56de88 3e2563a0 bd80a424 bde14f3e bde67c26 be6875f3 beb6e7f8 be12a024 bde0b8b0 be7d6fc2 be04b4c8 3db4ff61 3e1e59ad 3e281766 3e3117aa 3e8420f7 3e6bc089 3e1b50d3 3e60dcd6 3e54b672 3df66a73 3e83e4ad 3e1b6c36 3e68ef17 3eba94d2 3e81209d 3df12246 3e7d05f3 3e133ae0 3dbcf707 3e529fc8 3e108a3e be03aa55 be89b609 be3759a4 3d985bb0 3dc5a910 bc15d16e be282d3e be0cf2d5 bde0faa8 be732563 beb15b4d be5a4b84 be1902d8 be560e5e be265a7f be3962e5 be5f8d19 bdcb62aa be311fa9 be8b2c57 be1613ec bd97f220 be224cb6 be271d23 bdb91975 be0cbe31 bdc5d932 be2aabfc bec01ed6 be8eef8e be1f88e0 be9b3c9c be5e6fb0 be346524 be140f7f bbf00fd5 be4a8192 be3d52d1 be4b8939 be031144 be163237 be44e464 3dc3262b 3e550543 3df36951 3d8575e6 3e96e057 3e2fccd9 3df4ebde 3e82f984 3e454bec 3e1c0c0c 3e4f7b4a 3e027716 3d670b98 3e58943a 3e143fae be4a17f2 bec6d9b2 be828c4c 3e1cf20c 3e06e559 3dc9801b 3e414f90 3ea53568 3e667fa7 3e55e3de 3e933394 3e576d90 3e141388 3debb33b 3df823ad 3e4bf1e5 3e8a4c9f 3e842c40 3e20f79e 3e3fac9c 3e6069a3
body.stage1.4.1.weight 32 3e168cd8 3e5859c0 3e0239bd 3ecc2059 3ec15067 3e663788 3eba1110 3e9406d6 3e353047 3ecaa435 3ea253d7 3e9ab802 3eb07c41 3ef1fb2e 3ea83a06 3eeb50c2 3e29825e 3e7bda83 3ecc2bc2 3ea9b182 3f99b5ea 3e7a2c34 3ea4d1b0 3e796d4d 3ed6d383 3f70316c 3e2fd7a9 3ebaf7f0 3ed7355e 3ed4f4e9 3ebff47c 3e8b34cb
body.stage1.4.1.bias 32 3e4734a1 3ebecf7e 3ea6099f bd084a90 3cf64cd8 3f20e2d5 3f03d684 3eb495f6 3e83d2e7 3e02b487 3f518ece 3f133d7c 3ed64723 3e20aa86 3edd647e 3ed13dd5 3eb41b5a 3f610ee9 3eeaab68 3e8ca3fa bf1dfa68 3e977d45 3f03f2d2 bc30be48 3f3977e6 bf17151c 3f0cb390 3ece5f99 3e907378 bcf6e24d 3f5b36bc 3f2db774
body.stage1.4.1.running_mean 32 3e534f53 be115e23 3e2024dd bc51fccb be7b554d be9ff5df 3d871a7e beacd51d bed186e5 bdf203ba bf611078 3ec67d68 3ebf0b9f 3be72a1d 3dcda7c5 3e8f4eef 3e6f552b be26ea09 3e49e43c bdb2c5aa be87448a 3e5f88a3 3d805286 3b7fa9a0 bf755289 bde41542 be04b920 be2be6b1 3e3f9fb3 3c591f69 3f60a065 3ee8cabc
body.stage1.4.1.running_var 32 3df9eb5f 3d3993c6 3de4c3d6 3a646db5 3c6fb962 3c378e58 3d6dd336 3d33e9a2 3d7ab2cd 3d3fe845 3e1cf8cb 3e61b18a 3e65cb5a 3bc5f4a8 3da035eb 3e873ae0 3db1b90f 3dfa13f6 3e423092 3c2f6cd3 3e7901e6 3e39c292 3d111355 3b442499 3cfc1723 3e4e068f 3cc48bc5 3d79fcfc 3d123be5 3c43a3d7 3e17c930 3d30057f
body.stage1.4.1.num_batches_tracked 1 48266200
body.stage1.4.3.weight 2048 bd16aa6e bbc5aa25 bd504066 bdd7f3fa bacfc8ca bc1f466f bd565d87 be46d9a4 3d314af7 beb41ba0 be11d651 bd0c7aa6 bb04cccd bdb7e62a bc0d4a6f be1524e4 bcc35e81 3e183daf be062ad8 bd60952d 3dd6bc61 3f361ea5 bd197c35 3c02189a bdcc1e05 3d022652 3d144884 be9f2a44 bdc13ea1 bdef511d be546029 bcdbbfa0 bf173a44 3e0b1268 3e046e0d bd09382d bcd1981a 3bfb2488 3cd3598d 3e0c2051 bc8763bb 3d734f07 3e5a659e bdca2ebc 3c81b64a 3e21eb1b bdfe2dae 3e7469d2 3db70ef5 bdfd0bfc 3d28609f bc9318bb 3d8b259d bebbf551 be10f9a1 3cd194a8 3e146fa1 3dd9a47d bcef89a0 3e0e97eb 3d72141a 3d96f787 3e0b9b51 bdfeef44 3cf62235 3c9b2b1e bd67d287 3ddfd7dd 3cd1e010 3cc0eded 3dd80d84 3d310345 bd57b0ae bcef875e be580ad4 bc69420a 3f09356f bcdb7d5e 3cc8ab39 bd944d17 bd3d738a bda65be7 3da359ed 3ccc1791 bcb1fd7b 3c28c236 3d7349f5 bcc03823 3b96b92c 3b9abc20 be7d1f4c 3cd3153d 3e433d2a bc13f01e bd9e9ccc bec830c9 3c243a1e 3e38afa4 3d2c5ae2 3e833b14 3e299b45 39d67c8f be220501 bc555e3b 3cdb8c39 3e99ee2d be8cb9fb 3e12cf00 3ec10b67 bbcc35de be7b2370 bd8f8386 b9d80f54 3e803576 be16baed 3d59505f 3eaa1b06 be023574 be216df4 bd054de7 bd7e56ee 3dab90dd bd9734c6 be15c251 3e9af367 bc894af0 be1050dc 3e0bf79d 3c8ea928 3cc8024f ba5559b8 3dc8f8bc bd917c70 be88746c 3da240a2 3cf1ee14 bcfbabf0 bc72bb53 3d5be80d bce780f2 3d421e38 bc91e6dd 3c1dc105 bc8bc888 3b9b9627 bd4259b5 bd44e088 befa024b 3d6d798d ba999aac 3d581ee3 3c129d34 3c0ab48d 3d09a50d bca49f7f bd2d5237 3c6c39da bcb2063d 3cb2bfeb bc3156b8 bd22ae10 bd8f0e15 bc4edf6b 3d8890af 3cb81f0b bc16841f 3d1cb4ea bdd99ba4 3ca0b755 bd7f523c 3c8ade57 3ad71f40 3de863b0 bdcf2456 3d3c8842 be107ea0 bd0e4229 3c26c753 3b1507a4 3d517ece bc9abb7f 3c618b5c 3da805c4 bc4ac1e1 be1eb6dd bddc7307 bec919dc 3c8b8ca4 3dd82292 bdaa5911 bc411d33 3d6e6840 3c2b4cea bd286e9a be0352a4 bd215d3d b9235274 3dbcd6a9 3c90da57 3dc8cacf bdb36af6 bdd78322 be7adb8d 3c3f02ae 3f098e57 3d383cad 3d18f5ac be1bab80 bdab72ae 3b8ef537 bd96ea58 3cdb51f7 3e455ab3 3d2ddfb5 b9492f3f bd4500d1 3b0d4c5b 3d87c946 bf409862 3d8ace9e 3ddf1617 bc96d51c be143d19 bf2793d7 bda64bab bcfc744c bd08aec8 3c2ebe43 bdb0b873 bc695719 bd9687d4 be02a2dd 3dbb212e be28b436 3eaeb5c3 3d100483 3cc74561 be0d310d bb73cad7 bba81858 3c03d512 bd3dd535 bd08a383 3cd43f92 bd31a03f 3bf502a2 bd0259fa 3c910095 3f0c42aa be4b142f be1acae5 3e6d1ff4 bd58d6cc bbcbfbc3 be7747d8 3c8191c3 bd8d03a5 bea69a9e 3c1e681c bd5a0706 3d3adf8e 3cd17545 3d8935b4 bd84cceb bb9f2f57 3e22aa73 3e865aab beb9d4bf 3e288ffa 3d5f536f bc0c25cd bdc5f4a7 bbc1b4cd 3d0ad971 bcf8d9f5 bd098b36 3b87bfbf 3d13c7c3 bd11b20e bb339b75 be45838b 3e14e711 bac05856 be0a4c66 3d51476b bce8543a 3e75cc4f bd92df14 3dfd134f be262c72 bbd58812 3dc42ac2 3da9c380 bd1864fc 3d2f65d1 3c5750ed 3df3179f 3e86a586 3e8a11ca 3df68792 3e513b63 3c844473 bd12b363 bce22d5f bd0444c9 bc91c692 bc69bba7 3c3e8741 3c2898d6 3dd93487 3ca0372b bd5efb7a bf029465 3d96f025 bc6dccd4 3d69e308 3db246bb bd955030 3ca9d9f9 3cdba85c 3e49ab25 3d4ca9ef 3dd68a1b bd8bb7bc be2f9465 be301be2 3c403a62 3d01bc34 ba556696 39bfd392 3e7a2f2d bca90502 bebe05f4 3e14cedf bd47825a 3e971527 3da3a920 3c7219a3 3d3d492c 3c790c8c 3d96e0e6 3c84131c bd934974 3d3e79b9 3de9258a 3e240473 3e41145b bcaee7c9 be847e36 3ccc8628 3e069fdb 3e69d18c be16d4af bdabd8e1 3e0d3a15 bdf21bd3 bd7dd458 bc15b009 3de85d4d 3de61dbb 3d83191a bd5fd90c 3e1e5342 bcd473c9 bec12f80 3db59caa bd76951c 3d88b28e 3dc57cf0 3dad1a9a be0d18b0 bcc6e416 3d052c3d bd8dd91a be22ef0d bbe17117 bde5a229 bd104254 3e32bc61 bdae1713 be835fa8 bd4c4386 3dd48e13 3e937fca bc592a2c bd950c5a bec7fba7 3d0fac5f 3da3299d 3d5386c3 be0bbe17 bdb22239 3b3236e0 bca37154 be5a10b8 bd690591 3dd90704 bdee6f82 bd58cdb7 bea9a405 be59bd32 bb30e730 bdab9d63 3d8f9523 3d0cc0f0 3e0ca177 3df276ca be0feaff 3db92a23 bdf17da9 bd28577c bd46126a 3e12f9ff bde2f0d5 beb23170 bc2a2002 bbf15cac 3d1ebf73 3ebd64e9 bdf5b9ff bd1c9d71 bd628861 3d8052bd 3c6c8fcb bc95fc13 bcf52d37 bd942c81 3c2279cb bd4cc71d 3d33a4a0 3d254922 3df788ef bea901fe 3c59badb 3ca42731 bd073307 bdbad103 3d918b39 3d1a2a2e bd1ad2a8 bc9f56eb bd50b7e0 bc9b87fa 3d13ea71 be232c47 bd4b3044 bcdae2b1 3cb69b45 bb191737 3b3531a8 3d4aa4b7 3df1ec41 3dc54fad 3d5948db bca089fd bc34050f 3d0a0072 3c9c33bb bc7b03f6 3f1bca98 3dce9046 3d20f275 3cd3ce47 3e31a2f3 3c3b73eb bcd1cdec bd6f5c38 bcb4021b 3d08deff 3cb52faa bc38ff17 3db16a5f 3c8316b6 3dd7191f bd9f87f5 bd7719b3 3d888fe2 3c8d9757 3e274288 bb5e50df 3eca0752 3cb4ded1 3d8ba6a4 bc41aa8b bd9a3756 bc9702a5 3d0e6bb9 3d9336d4 3ec3fbc2 bdfb0265 be58c388 3e18359f bcd8c68b 3bd3a570 3c142d5d 3e243900 3d8e925a bd420549 3bb1d6cc 3c17003f 3cbdb1a9 3f670563 bba9b0b3 3d21b913 3e50fb8f 3eddc7de 3bad7647 3c22d026 bc1115e6 3d874fe2 3e0e094c bd67390b bd5ba01c bd84113f bcadd87e bbe7efc2 be09ff07 bda61178 bdb3e8af bd9386f1 bbaa7539 3e5e07de 3ed92767 bdcadde8 3da61367 3de5e5b5 bd44bb8e 3c12a634 bd21354d 3cfe7e67 bdaeee43 3c57d101 3c76197f 3da9ab82 3cc0ce24 ba8c57a6 bed0b697 3e90203a bca8f250 bdce6b54 3dd9015a 3bec6c5a be3e37d4 3d236d60 bc9b383b 3d0c8d12 bb917c40 bd619e77 bd341e88 bc77a2a0 3ed56534 bcb3f445 bd27d428 bd79507f 3e0de6f7 3d475338 bd86b139 bc6db393 3e6edb7b bd4e7517 3d4a58e1 3db261a7 be9cd57f 3b37f889 3b9ba384 bb0df6d2 be360b31 3d0202d6 bc483c29 3d121b29 b97a4e56 3d7fed9e bdd43835 3cd179aa 3d9434f7 bdc0f0eb be1ccc9f 3e80f248 bd3adf99 3da79745 bcd45162 3c6f590a 3d419bee bdfc645c 3eb2b78c bcc485a1 3e9e2467 3e3cc2e6 3e28a3cf bc9c9308 3e0bdb73 3e11f7cd bcb42973 3d07bdfc baccfb90 bc4c3bee bd51d1e6 3c1d6253 3d9593bf 3cece8ec 3f7a8a7c bf17ba2c bdc07e36 bd5002f1 3cad5e82 3d64979c bec3ad96 bd8a7b0d bd8e2862 3de00318 3db822d6 bd172e6a 3e90a800 3e426675 3e84b24f 3e545ddd be03b9bb bda2d95a 3c2c816a bc817c50 3ed46760 3dc98a65 bd977cb8 3e9e1e2a bd6cda8a 3e3e3fbe 3f052c1f bcc83b2d 3d662641 3d815c64 3e8b9fc6 3a79c3ed 3d2f212c 3d06b541 3e3687ec be4e02ef 3ee02e7e 3bbb2c73 bdb735f3 be85930a bdd39c8d 3df6e7bd 3d01e804 bb89d906 bd8e8383 bd2c6abf beb50e60 3dd61ccd 3da5d6ce 3e1f3a0b be045672 bde35f32 be2c75c1 3aa62f8c be89c889 bd247bda 3c92940c bd6d7c2a 3e2f5cae bc954bd6 3d9033ea be075b4d 3d59f034 bd553f39 3adced8a 3dcfe699 3c587a4a 3dec4c2a be2a4ad4 bd3ee66c be803f00 3e21087e bd71bc72 bdabfd46 bde6cf61 3dba1912 3e03bb2e 3d8fb121 bdeb89b1 be7f4798 3e448b03 3e804fa9 bc952638 bea517e0 3e321fcd bcb24771 3d9485da 3b9f7c2f bda5992f bd76b09f bdec498e 3d5c3192 bc44e8a0 bd5b3efc 3d5accaf be122e8f bbc89468 bd485fb4 3dbd5774 3e358f06 3dce8b09 baf10e54 bcf1c880 bb197bdc 3b0d13ec bd8adeae 3cd824fa 3d976cb8 3cc73ed5 bcfdfe26 bdcd031e 3d8e9abb 3d61167e 3db1d6ad bd7260de 3e821eb5 3eb8dadc bcfe1adb 3ac940f2 3c8b9da9 bcf77f6f bd7167f7 3d8e6cca 3d90f9d2 bd423436 3c88680d 3daa791a bd190cff bd2c71cf 3d1e735f bd75f394 bd284bd0 3e09aef8 bcc3c8a2 3ef140d7 bdd14989 bdb580a1 3b4d6738 bd5fc8cb 3d16eaa9 3d8ef061 3e920aef 3df1896b 3ea583bd 3dc3d988 3cb3b7ba be1fe4fe 3e1f1007 3de51685 3cfae9cd bd72928c 3d910bbc bd02271b bd26e91a 3e471705 bd3d3205 3d539486 3c07b4c8 bdfbec44 bd19400f bda9692d bccc9112 3d00a9fe be9a232c 3d7ace39 3c9a7056 3e0c8982 3d15b137 be16675a 3e59e0a7 3c0eece4 3d344fde 3df32c08 bd4189cb 3d8297d1 3e4ef7e4 bdb10b37 3e08e220 beb0d545 3d3f3a23 bd21c9af 3dab43ce bdbd9102 bde55558 bd080d44 3e42d6ef 3cde9f0f bd67712e bd05a430 bd80f96c be1bac47 3d20d7ae 3afa67d9 3f02ad88 bd1d5521 be4af524 3e0d198b 3c303976 3e0a7773 3c36f814 3cbdea95 bddca269 be9d2c8e 3dafe8e7 be037e8a bd708600 bd3c5c54 bde59492 bc732855 be14ba55 bdcb27ee bdcc0cc7 398de3b5 bd3b6e3a 3d67e14c bdb4b70a be720824 bc68a43d 3ec337be bcbccfdb 3bfc4194 bd4994a8 3f17f795 bd836239 3d11ba67 bdc7fe37 bd92ec57 bdeff05c bdd01271 bcdc53ec 3e485935 bdf9d44e bd8b3ef9 bf56c89f 3dc412d1 3e5fb711 bdab9c9a bdd09add 3d9b06cd 3e3f941e 3d781089 bdcfbd82 bd9555a7 3f17b615 bdd6b3f6 3a963e63 bd528cd7 3c88e672 bdbdb1df bd46db27 3e3d054e 3d99c865 3e269c51 be150d31 bdb1ce47 3d595594 3e1ee89d 3ca3fa2d bda94d5e 3e9678b6 3d03c868 bcc90e65 3d069571 bcb0ca86 3d71cb5c 3ca70974 3f674624 3d097546 bdac01e9 bb8d19e1 bd0c7c7c bc9e4ab6 3ca0450d bdbf4d61 3d5b3039 3c8c3d27 3d5b065b bc8f9a2c 3a44e1fd 3d9db77c 3f6571b1 bcbb9072 3d360e3c 3c283d97 bdfa47ca 3d5f446d bbb95d03 3e0e2b9d 3d09f00b 3cca7d4d bdfaabb7 3abb766e bcb3e0ae bde7fc2e be478c14 bd756a80 beb3e902 3e1e27d7 3d10a063 ba8c38dc bdb9b055 ba4bdcc6 bdbab7eb bec39218 bdb63161 bee0528a bd9ac3b8 3dab9a57 bd828d99 bc36e652 3cb9c217 3d2ed71e bd527eff bd19a804 bd2233bd bd141e4d bbbcb1b1 3e9b960d 3d05476f bc1f7252 3e817a18 bee6d606 3c51d2d2 3e675e9b be47b6ae bd1cc882 3cc17891 bd56c378 3d30114a bb65b16b bcd8f32f be69e291 3b623309 3f37f6f7 bda2b9f5 be7d55ab 3d5e7fb6 3d2dac99 bd47b6a1 bd784516 bd9ed9a6 bd237829 bacc8a31 bcced47e 3c69bc4a 3e06f5d4 bd6d7f89 3e18c7c5 bda086df bdda16e7 3da9ba17 3c94e7c8 bc842656 3de3be1e 3d81a32b 3dd1d8ed 3e9ee013 3d4b94df 3d8c4c23 3dcc3aba 3eec09fb bc36e922 3bce4241 bd581932 3b82c5e9 3d92fe41 bcd76e19 3dbbdcbe bf1993a3 bd3da33d bd90588b bd2ec4fc bda3fc73 bd0f8c92 bd91d094 3b325c9b bc3e2e7a bd8ed2d6 bd2b1ea8 bd11fcc3 bc4d4e89 be9c1c87 bdc425aa 39a029e2 be279f2e bdf99aeb 3b025dff 3dbcf013 bd6d36ea bce7066e 3b344825 bdc9cbbe 3dafb43d 3cd3bd72 bdf04848 3ca201d4 3d8e1f75 3d83d3ac bc62e2e9 3d3b6ac3 3bed3c72 3c59b6b5 3ea434bf bda53e92 3ce6df42 bdbfa23f bddbc85d bdbfc9b8 bdfb007e 3b8e3f1f 3cfe11e5 bd687214 3c6fc437 3daacefc bc6b38c0 bd189836 bc9c966c bda13c7a 3c8b4961 3d3a7518 3d8e8e11 3ede6f84 3e809c9c 3d648631 3f4d32ad 3e82bfed bd8931a2 bdaadd07 3b4da8a0 3dbf6272 bdaa3f26 bd533288 becadb03 bd38c69f bcd57e4b 3e4202f3 bd7b868f 3db1b18c 3dfb470e 3e0e6697 3c785f7b 3b99fc40 3dc19671 bdb5d0ec 3d63b407 3e259996 bc9c07ae bd0569da be14a80e be8332b6 bd5e4cb8 bc580ab0 bd8a36cd 3cad374b be6d1684 3ddbf1d5 bd4ba180 3dab9dc6 be1c6c0f 3dc73a12 bd68fe9a 3db385c9 3e49884a 3d83a984 bc7cd970 bc85d978 3b99790e bd23845d be54be24 be14e158 3e99e3b1 bd8c8ec7 be03fff9 bf46066f 3f139aad baba1d1c be135dad bbed6f7f 3e451e77 bdabf376 bd2afceb bb8cc0d0 3db7f0c1 3dd422f2 bca56875 bb1b27d4 3bfd1365 bd677dbb 3d01c413 bd8c06fd 3ec5f740 3caa97a0 3d4a984b bddd0fcf 3d5af182 3e7f92a3 bd6d7e3d bdfbe571 3e7be5ed be4b8399 beb06971 3e900f7c bde43248 3f1360d6 3eb35282 3f258320 bd23d911 3d836f05 3e20cf6c 3d18b771 bd6854db 3e731c84 bdaf2a27 3c41a0ad 3e616216 3dbbfb9b 3e5c17e3 3e8b8f3d 3e542ebd 3ea7b451 3d080229 bd592dd4 be1b656d be9c58ea bebce59f 3e0f7c37 bd730764 3d047700 3af8c1b4 bdc02479 bda4a807 bdafc2fc 3dcb3ffc 3e66cc1a be646068 3e8ea385 be03651f bd2ff8c7 be958666 bd5ea909 3e401e72 bcbcd65a be051a18 3e34ffc7 3df60340 bd9345d5 bf1df989 be2e291b be82f89f 3e4d201b 3dd1cb14 bf009c16 3a3ee72c 3e622763 3d5f8ceb 3e3510a8 3e22c303 be0c4b52 3ea0dde3 3e8d6c5a 3ca69741 3d934fb0 3d1c7073 3e84572d bea3c6da 3bd33e41 bed0849d be073772 bd7e0417 3e4a6308 be0312bb 3b83bc43 be05a20e bb8b2948 3e2b484b bda78767 bd5c3bc4 bd008424 3d8b84b0 bdf8f583 bc90bc7c bc91ce3d bd869efe be1f3f2a bdacf8c0 3c4147b5 bbb1aa47 3e536c31 3e69d395 be25f1ec bd89c82c 3c7f0eda bcdaedad bd185c3a bded51df bae242f2 bcecc6d4 3d90c653 3e0400d0 be0b6168 bd645279 3e47d5b7 bd66be46 3f17b3cb be29409f bc8dc605 3d62c4b4 bccc034c 3d55ebfc 3cb05bb7 bdee7af6 bdabd1a0 beb1275d bd691b34 bd8b5fc3 3d1b44ed bdd393b5 bd6e0801 3dfc3eb9 bd1a3ee5 3d0394b9 3d736935 be66c91e 3e28a387 3c4d1975 bc8f5bce bc8fe34f bd07c6d6 bd40a567 3ddb99df be95f60a 3d1a301b 3d41de42 bd29317b 3ec091c3 bd8f614a bca6c051 bdcdd039 3e744312 3c9a5c52 be043344 be08b0f2 3d365eac be31f567 bdba75fa 3cd33a39 3de7a9b6 bdaac9d4 bc04df9a 3d682039 bc8a1f74 3bf6f7e5 bd3dc032 3c1d51a6 3f5c1fee bd914625 bd16691b bc1f9a1e 3d900f65 3cb853c8 3d993f65 be29af23 3f730cdd bc28940d bd1a1cb8 3d7618a5 beac917c 3be2e033 be0a8818 3cef0c11 bedc43a8 bd5319e2 bc2f649c bd17730a 3cfd6525 3e2aa52d 3e153e0c 3d8b4aa9 3e11e74f 3d9235bd bd988771 3dc4e03e bd62defa bb704ff6 3d0f67d2 bda06c4f 3d5c93d4 3e0e9a74 bdba18bc bd6d4840 be8d27d1 3dd6c33b 3d8a1fa5 bd5277bf 3c8a84f1 be798780 bd26e135 3c5d9d0d 3cf4c61b 3d6c9561 bcfc1e37 be104b56 bcb300dc bdd00370 3da1e66f 3e2b9ae6 bd462b91 bd567fcb 3d95d7ff bd98a834 be8d06dd bd88056f 3cb4a93b 3dd0f5ad be0380e4 3ec7a8c8 bd852c73 3dc20e27 be4260ee be0983e0 bcb3d407 bcb8dd90 3f01e4f5 3f143148 3e3f102b bd4cf913 bd59b4ba 3cb048f9 be2ff414 be50ae7d bd409730 3c6f3d4b bc9ca43a 3cb346d0 be068a43 bc3fbf8f be6cf08d be0ce7d0 3d655352 be6f5e20 3d008999 3c51680b 3ec66118 3e98601e 3de43c12 3cc34733 bd2f6750 3d8f8d31 bca14197 bd21da30 bb65e68d bb970506 be14824e bd89580e 3d005897 3e9628c4 3e155db7 3a13db0c 3cbe0c0d 3c16555f bd8601a2 bd11528d bd4f5efe 3d3fb676 3d766c2d 3e27296f 3c51b647 3d2996aa 3e641bdf 3d57a9ef bd7c7b0e 3d885b71 3d028fb1 3cce2f3a 3e8347a9 bc9dc4cb bd184700 be4a5fd3 bd1ed717 bd3d7a15 3e715408 3c71bdc6 3c53dc6b 3ec8981f bdc591ab be89023e be0fd036 bda977e8 3eb72593 bc97249d be740608 bdffd263 3cd3768e 3e50c3c1 be4bc9da bd847e5b be0c9c1e 3dc04cab be7b5dcd 3d1995b7 bdbe6f8b bd3274d9 bd0139a5 3f189ae9 3e345ece bc9e325b be8d0cad be3f9eb4 bd16af56 bcdc494c bec0de76 bdcdcce3 3dd375f8 3c8757a5 bd33f4f6 3c6eccd6 3c9a958b 3d4dcf60 be89acf0 bc50312f 3e0e1133 be0d7ddc bb945876 bed5af95 bea6c4dd 3cf6d5e4 be177043 3cbe1dab 3999355a bdc62d2e be078d29 be39893f bdaebb01 3c11a98e bdd0a5da 3d1c02e7 3de18f61 be2176be be407046 be0d5c56 bdbee054 3d2fa4c2 bdc0ef7f bb5101f6 be05c8f2 bd645f14 bde2c1cb 3df959ed bcfb86e0 3e2e828d be8aa3c8 3d51f9b4 beb8b649 bc9fa04e bde86486 bdfa4476 bc9eae4d 3e3f9c97 bd44ac20 bc427898 3d2f7864 be49ff80 bdbd874d 3d0e0c08 3c418db2 3ea16efa 3dc1a398 3e2ab890 3b229cc4 3c8e24c0 bec31a56 3e9999cb bac339ee 3a07b094 3d5965ce 3b81b87f 3ebbd3e6 beb04c59 bd1460b7 bc74bd3f 3d2f1c08 bdb01db3 3dbcfd3b bd7476b3 bdb7799d bc9dd1dc 3c8084dd 3c9483cf 3c65ea8a bd83833e 3c9aa925 bdc9b5bf 3d10710e bc147613 be06a20b 3cc9d444 bc850b57 ba623a6b 3d79bfa4 bd989a16 bb56af2b bc3f65b8 3da7199b bdcbd82e 3de1be75 3c98f5f8 bba01b4d 3cbfea77 3d84c0e3 bc2cd4c6 bd30233e 3db50819 be74c71d 3c246dc8 bf16ff4f 3eaab462 be1751fa bd5668bb bd4bb007 bd60c1fe bb564789 3b884596 3d91883c bc158f7d 3c24ad37 3cabdafe bd8a7238 bc0f1477 3f080aed 3db49ea6 3dfdf9db 3cbde067 3d1cbc8e 3c337c6b 3f1b7c3e 3d44b0ca 3da60b96 3d3cbd91 3d1156e0 3c5e6afa 3db7de77 3d1f33c3 3bce8d09 3d786e18 3d0b7403 bcc173e8 bd339a91 bdc3d521 be258608 bc818231 bbdfc927 be6b9659 3d85a326 bd1f4530 3dd1ed82 bd872bfa baa91a75 bcb23a5c be9d2991 3bf6fc86 3e655a86 3dbe2c0a 3d81f9b6 be37038d bcbae9d6 bcc01cfa bdd86173 bc8ed33a bd33d207 bd61c23e 3e1a784c bc5b6740 3da722a4 3d4df504 3daa7903 be186242 3b8ef612 bdb9e0ad 3e08bcad bd40e55c 3e955992 3c9c2c9e 3dc57b83 3d9b7b70 3d57a4fe be81eaf0 3e1c162a 3d47c771 be06b631 3e2de968 3dd79120 bc42bedd 3de71154 be78ec0d be567cca bd7522b8 bb94dad0 3cb9a82c 3ed41c07 bee9fbe9 3dd53c7f be8a18bd bb72bdcb bc0a7e69 bc79c6b0 bc715cd2 bc094403 3e0eb073 bee0e6ff 3d950531 be040ac9 bd57fd65 bd148385 bd4e8266 bd008d09 3d204e98 bcf64d56 bd5440c6 bdd8b107 bb775d48 3d6ac421 be16a01c bd0a2a22 3ba795da bf11cf60 bd5f6205 3cae87bd be46ae8d bd51cf23 bd7ee9f9 3e79294c bcb9bfc5 bdd6cd4c bd4137c0 3ca26292 3d2f1c08 be38c151 bdc6db25 bd480cc8 be3d03c3 3bc5edd2 bca187aa 3ebbe5ae be2dbdc5 3de8957f bd87c27c 3bbebf82 bdb610b9 3d39a144 bb0be1cb bc3f8071 bc8cb187 bd19bd32 3c7580df bddda44e 3d44e113 3e5dedb5 bda28155 bd24e90c 3e3a1130 bd8abaca 3cb3688a beb4ecc3 bcd153ba bdee2c7d 3cdfcd57 be463efa 3daf5100 3e1175b5 bd91a46f be2587ea bdb2b9b0 3d30a03d be03999c be4f34f0 be1b2a6b 3da61619 3e081ff2 be90f5f0 3da340c3 be89ee88 be550b32 be9d1d32 3d093728 bf9b7242 bddcd9f1 be2af3f4 3dacc5ed bde0286f 3aeb979e 3e2a3c46 3dafbf6d 3e189ee7 3e2f7b0e 3d8c92ad 3d8b6039 bd810524 3d94799c 3e3ad4cb bd8aea54 bdacf400 3d57a35b 3cc26001 3d98dab3 bbcd6c54 bd9faa07 3e7b5064 3c3ca37b 3ccc5788 3e91102a be054742 3ec69bcc 3e533806 3d093991 3d8c92fd bca5fee9 3dbe9d24 3d91907c be04da6a 3deb6ddc bd6d05e8 bdb66566 bd815269 bd8c9e11 bdf452e6 3da7cbb4 3e519aa7 3e5558d4 bc379c61 bde5c07f 3ca9a9c1 bd719556 bbf35595 be8f8cbc be112430 be517971 bc1007eb 3dc7cfc9 3d64c919 bc9ff5ca 3dfdc077 3d9b3ad9 3c669836 3ddaaa3b 3d8d58e4 bc77a0ad bd35275f 3cb9d2fd 3d1fabc3 bb0b0dfc 3ddd8057 3ce152a0 3deed558 3d2398fb 3c9d7bb5 3e218d85 bdae22ad 3e2b1b05 3d8ac60e bc8a88a2 be063637 3d668964 3cd0e9f6 3e0d4ad9 bcf62fa0 bcda8128 bd08d09e 3d2d951c beda65d0 bdeaaedc bf18614f 3e30d6cc be128a3c bd907ec6 bd913878 bd6432ac bd0c3211 3cdd68a3 bd8112e1 bc5975d9 3cb9d45f be093bbd bc7ea796 bcccab48 3ed8e13f bea67dde 3b115456 bd8ebbce 3d3cd9d8 3cffc566 3ede5710 3e0243d6 3c79a4bf 3d04eaa1 3ef95381 bcf75668 bc67ed2b 3e09790a be7a108b 3bea855e bd3df00f bdc2fe70 3d4bc0f9 3e20bf2d bbcde34c be36a016 bd8828e6 bdc6ede0 3f1b349a bebfae90 be522e83 be0ae6c1 be97f85e 3ddf78b7 bd6ca68e bdbc5425 3d13db05 bd9b4fd2 be2eb0cb bb5d48e9 be31fb44 be2e66f8 3c00bf30 be343ef2 bd99ae1e 3bfa15cb bd33f2c4 3e8867d5 3d00cd22 bee94704 bd24c53d bcc5be88 3d82fa3d 3d638320 bd289b53 3c9c084f bd90b3b1 3dd14097 bc77024c bc9a04ff 3c100a84 3e042f9e bd4832e9 bf47fa43 be1d1cd7 bc12304b bd885afa 3c9ac434 bbd2eae9 3d4b24fe bd4f2ad3 bdd82399 3e2d35b2 bbdaf066 bc871067 be0c43e1 3df1a096 be9854fd 3da28a12 3c1982af bbe7e4a1 3b717c4a 3d9108f4 bea4f01c bdce4baf bea794f2 3d6dfe1a bde203be 3d8a81ad bd2e0ad9 bd8d4fcf bcba470b 3d6de3fc 3dbd75cd bde64a45 3c834570 3d7b88a9 3dcb5dc9 bc2a86e8 3d746af2 3c36c4b7 bf0d8809 3da6d59f be73f734 bdae73fa 3d2f20cb be627949 bdc6b837 3a83a235 3cce1132 3d4cb5e2 3c99c563 be1160e9 3c940807 befaf1b1 bd0d3b14 bda12dcd bc92906c bc7d7137 3c0a95db bb922872 bce0d746 bec67bde 3d339229 be3d4852 bd435cee 3f2e455b bdb0d481 bcbac261 3d527b14 3f20ab7f bc043f69 bc90a6e4 be074558 bd9c781c 3dc93c9d be5f208d 3b6fad2b bcf205ed bde05bab 3d19a182 3db711a5 bc8d8464 3cb4df47 3d29739e 3d3ef406 bd82eae0 3e20c2d9 bc5446cf be18ab5a bd1103fb be2e5785 be687771 3dcd7f75 3df2dcb1 be3d536a bd70ce44 3dae2009 3e06864b bd19a934 3c8ce01c bdc69445 bed6b05e 3d054016 3dcc15f3 3dee49f6 3e15107d be85a119 3dd4c4a7 bd85935b 3e1e14cb bdb2f2d2 bcfb334d bd08f8a2 bc3fa273 3dcedc2c bbf77b0b bd993052 3db44c33 bd410276 3bcca8ec bd708528 3d20f17d bd3d4d56 bb4def81 3bcc8b52 3d91d5ab bd84c8f9 bd3cde5b bd018486 3c85dcfb 3eab2113 3d00692b bcd4d2b4 3d375634 bd4bb097 3d4c4d9c bc6522bd bd9e2751 3ca5fabc becb523d bdc779fc bd080b67 3d835e5b 3c97817f 3d06ddf6 3d7f3ff3 bc9a31e9 3db0eca6 3c987c52 bca54b54 3d9b374c 3d821a2b bb4ce9ab 3e84dbcd 3cadb1c0 3d37358c 3e2767f0 be78c475 3e8a9efb 3d1c90b8 bc6844f9 3e0691b8 3cc4f5e5 3d8c13cb 3d8a682c 3e52ad9f 3d9b7e35 bc3ef348 bc1a43a7 3da80f0b bc384646 3cbecf58 3dfd2e6c 3e6b4255 bc371c19 bdf0c52d 3d87b311 bc943a0c 3d5ac623 bd586482 3c6c523f 3dccb29e 3dd81204 3be65e41 3d60553f bdb738bd bd08a3ab bc321d3b 3f40b03d 3d67ca51 3f3197f6 bd3813e0 3df2741e 3e02335d bcccf93a 3b55ec76 bd1a0d99 bd490e1e 3f157999 be0128a9 3cff949b 3ced1dbd bd86f235 bdf62c3f 3f3be88d be2a772d 3cc957ff
body.stage1.4.4.weight 64 3d9db18b 3e1b00a4 3e6f3728 3de474e9 3df436ca 3da5df93 3e11bc44 3e19d075 3de5ed35 3dd4a7d6 3e290545 3dae7e53 3e1d5a24 3d22c1d2 3e43db2e 3e389050 3e00039e 3d1807fe 3e749928 3e118265 3dd47ecc 3e2ef5fe 3db6994e 3de7eaa6 3da7301d 3e2ad3ef 3de384bd 3e2e7ed4 3e1a07ed 3e5bdcaf 3e8fbeac 3e33e07e 3dd19286 3e007720 3dc503a1 3e4057c4 3e5a61b8 3e663395 3da9c6f1 3ea919a4 3e6f0197 3e1c7bf1 3e5028e9 3e42435b 3ebd5650 3e579c49 3e387870 3eb21e68 3df0e0ef 3e53527b 3e021055 3e0f0dbc 3ea766ba 3e65c3eb 3e3fc3dc 3e2cc1a5 3e76d20d 3e7a5ff8 3dabc73c 3e8e27b9 3e0fb41b 3e387ef3 3e488647 3df82697
body.stage1.4.4.bias 64 3e9b7ada 3e83378f 3e9284ad 3eb89537 3e28a796 3e674f02 3ead8859 3ea9e34f 3e9cbd85 3eb0edd7 3ee2ee97 3ee93e19 3eb57006 3e77f850 3e74a397 3e87337a 3ec2b38a 3eacfa43 3e844f61 3e3b8b59 3ec66bd1 3e534a1b 3e7e40de 3eabc6aa 3eb0c7b6 3e3c42c5 3e8ee17e 3e8a3531 3e91b5bc 3c972230 3df8d2d2 3da015c9 3e9df0c2 3ea4eb0e 3ebf4b3f 3e64828b 3d8d85a5 bbdba25b 3e9a63a8 3ea3b945 3e824ea6 3e5d5f56 3e205707 3e6be292 3da9f52e 3f0e2746 3e148b14 3dffe681 3e879443 3ec16aa5 3e3d7283 3eb81f08 bb6f65e9 3e64353f 3e12427b 3edcfdf8 3e7de8e5 bd2afe15 3e934f9b 3ed455d6 3e79ca2a 3de27fad 3e3735a4 3eb6f240
body.stage1.4.4.running_mean 64 bf1cdae7 3e4f4b0e bea2f403 bd9b7cc2 be8ea9a7 be85bea4 bf7c2195 3e91f09e bd9d7e9f 3e0040b3 3f068d7c 3e1dc4b8 bf4ec554 bc69437b 3f15f16f 3f255127 be886d66 3e5b03ce 3f859233 3f8dd6b5 bf0fb45d be103ccb 3f0e4b94 3eabdbd0 bdc68e24 bdbd0128 3dee7320 3ee2ef24 bd806606 3f252ce7 bf1006c0 3efa063c 3db00791 be665352 3fcad25c bf85d361 3de7d48c bd931dc6 bd71f571 3f6258e6 bf085790 3f376f80 3f123d9b be96db43 bf8b2f48 befd5717 bea3b151 3f199c96 be96ac97 3e9a1c9a bf4b9178 be2dad9c bf3dcdb9 3f41d2c7 3d5700d1 3d1bddf2 beb9bae9 bf270a86 befbc6ae bdb34254 be37882c bd8c3730 3f4f8adc 3ece75ca
body.stage1.4.4.running_var 64 3d6798d2 3d6e2fe1 3e026c65 3dd0b877 3c98c07f 3cc4466d 3e06e4db 3db97200 3d32c5fe 3d944bf6 3dd82eb4 3de8c49d 3e0ce63a 3c806063 3dcd6ff7 3dfe0bec 3dac30ed 3d42820a 3e9313b2 3eb1b1ad 3df8a8dd 3d815327 3dfae991 3dfe8a86 3de1decf 3d912539 3d87049a 3d59d8c8 3d9cf8c8 3d41f6bc 3d172bdd 3d14811a 3d235a8b 3ded0ddd 3e4af34e 3dda75b3 3dd2545d 3da01dda 3d7e3fc6 3e5c93ea 3da152df 3ddcdbc2 3d9040be 3dacdcb7 3e3432af 3e64fd93 3c61858d 3e80189f 3d4fd533 3e804837 3dc22222 3da3b68b 3d4d7b93 3e0d1c8f 3d147cce 3e335a97 3d2dc921 3d88952f 3d2bc332 3e195aa2 3db12ec2 3d4b6e30 3dc9ced6 3e98299e
body.stage1.4.4.num_batches_tracked 1 48266200
body.stage1.5.0.weight 576 3c803e1d 3b0c5232 bce9578d bdaf2765 be82ed40 be0f894a bdce4784 be6bc2e3 bdecd482 3d2a5d5a be14ca60 3d5b30b7 be2f1a04 3f309ce0 3d60b9de bc6f5007 3d8fa4fc bd1992f4 bd1e9e99 bee2698a be0dcbf0 3e663275 3f0c8b47 3efcd32d bd49b2ce bead9009 be03e18d bd85bba2 3df84736 bd5dfa8f bdd239ce bed5b40b bdf25377 bd45e4b3 3dac724b bce7aef4 bd7ab09f 3a7aa032 bb590176 b9e6bdd3 3ed369ca bc9910b6 3cfee2c8 beadd962 3cee6033 bd08265d bd5f7cd2 3dbada22 bb9d6f31 be9c3760 3e1eb5c5 3e0898d7 bdcf0f25 3e4195cf bd9df239 3dd2190e bd5fd151 3e09521d bf84ed2b bde059ff bda8aa13 be17cf0e 3d43e227 be5f9c03 bd4c4127 3e863541 bea985bd beba5b9b 3f29adaa be77fd89 be28be2e 3ed53557 3e08e3d2 3d4b6d99 be4c865d bdafb562 3f1373e5 be02d5c2 bebab6c7 3dc62c8f 3dfbe738 3e5c2dad 3f135aee 3e32fa20 3da88cf5 be4e5958 be9f9892 bda40cc8 be69e3b4 be63eae3 3e1e042b be77c636 3be52d0c 3e9caf0c bf13aaf7 3e7169b1 3e009cce bed66b36 3deab64c 3d0f5362 be8f9e01 beac523b 3e12786d 3f2ceced 3e155631 bdba615f bdcfa61e 3da8d344 bd79aa08 3ea0e740 bdb421d2 bdc06e53 be9eb9a0 bda7c6c5 be4562c0 3f6bba1e be9014ee bc7dcd6e bc03d13e 3d8e1693 bdde623a bea4af2d be3d6c4a 3c0bb4a6 bd00304c 3d70504e bd8b8677 be96c8b8 3ddd3828 be8e25f4 3f512b52 be780e2e 3dcc7ac8 be7725f5 be399cb6 3e02be7f be8c49f8 3c8f926d be52905b 3f6c69d7 3e26ad83 bd609b9f 3d85b30a 3e1c3f49 be314dce bc1b2f83 3e38853a be84e8e5 bec704d7 3f3f27aa be8c9abc bdd339f4 3ea2bd89 be29af22 be4d6ca7 3eb19f3a be1e9ddc 3d7e4c4a 3e8a8dc9 3e34ed9f 3e49e36c beecd225 3e9cece2 be96be49 3e2c5bdf 3c32a543 3f04317c 3e296129 3e87b751 3b18af6e 3e70b9c7 3db85063 bdae8ac1 3d789a65 3e0fe159 3f0d3c47 3e81731c 3df5326b 3d95fdc9 3e741c2d bdccba2a 3e1364e3 3e5b9617 3e88601a bf2efc56 3e7361e3 3e6dba2c 3e7e081c be06db48 bdbe14c0 be0e7301 bde9d7aa 3c32a0d7 be2f89c6 bd9d5615 3e369409 3ef53d0e 3e7a6316 be171e13 3e53d449 3e8009b0 bde72600 bf4afda0 be80acce 3df4b029 3ef11e31 3d2a6b2b bdb07437 bd2c256a bdd15742 3e70abb6 bf16848c 3e682400 3ca73605 bea417bf 3de0a33b bda008c6 3db2ff28 bc700b8f be30374d bef5aadb be62bb92 bdd5a593 bd99e28e bcd1ae62 bd81f2b8 3c34d1c6 bd29c38d bd7d8c9a bea0afa8 be34300d 3c21279a be57f75c 3cc1194a 3c380694 bd0f9360 bce08207 bceebaed bea2b787 be203b8a 3daee02c be2dc08c bde47bb9 bd0da376 3df54ea2 bca5f10b 3debce80 bf32b1e7 bdcf8d10 bc979e93 be9f738c bd29316e 3c30360d be1aeaba bd5e7e2e bd997ac2 3f79b5f2 3dbec945 bd9c3fa0 bdd4a39f be69e0d6 3c3e554f 3e01e217 3de8647d bd633b9e 3ec65c18 bd514b29 3d801154 3e730ca7 bda03030 3d3ae7e0 bef71580 be419cdf bdbaae77 3f370839 3d738947 bded5d6f 3e4e4472 3cc0b03b 3d459852 be67d360 3dbc146e bddd982b 3edb53ee bce5b1bc bc6b5e0a be097324 3d0476be bd97ea9e 3e8cbbec 3d8d7b0d 3e2caedc bf099605 be23a06c 3cb3a3aa be74017a bdf7dcb1 3d4877da bd33ae6e 3d79fdcc bde6f2f8 bf0effdd be6bf1d4 3d94e96e be80cb76 3d500410 bd080a12 3cd644df bc6e75ae 3c8c5df1 bf3ceef9 be4f59d7 bc97e76d be5a5fbd bd2874c8 3d0a7881 bc0e6a55 3cdf78f4 bd6bdfdd be8e37ec be960695 3d81adb6 bdc66e7e be03d075 3dab0917 3cfbc966 bde40d72 3dbf2f43 3e965912 3e2414c2 3d5cb8ce 3e2790af 3e13f51a bd971587 3da21ba7 3d0762dc bd02d5e3 3e837b0a 3c97bf0e 3ba9e1f7 3e7687c9 3d836f54 bd37e56f be388fcd 3e2db28d be9880e1 3e9db48c 3e0ec015 3e82037a 3e990db5 bf161de4 3d6cc868 bb80dff9 bdd00bea bdb5b50c bf2198e3 bec09d70 3d186c54 be280b89 3bc14c2f bcec5008 3e37719a 3ce0a3be bc963d77 bf2973cc be3f61bb 3d8fa14f 3eca4c9f 3d01d859 3d134507 bc8c83a6 bded601f bd2e0eca 3f11c283 3ebce302 3d90720a be072bf9 bda0f9d0 3ead84b5 3d35ca85 be74cfcc bba4c103 bed7baa0 bdb73e88 be235fdb bd975a60 3ec95e68 bd1425f0 3df1f024 bc0bc392 bdb20b64 be8510fa be58cf5e bd57459f 3d501225 bdb25255 3cb426ae 3e960e64 3ddb00b1 3e827ee4 bf8313f7 be0e36e7 3cf600c3 3d8dba86 3e226cc6 bd8a3a11 be8aae08 3db0d128 bf0abb05 3facba2a bea6bcde 3d8906f0 bd1fc42d bc6f89b5 bcc1d66c 3dbe5e8d bd8b6e12 bdd9e624 3ea84728 be30c094 3e3c3c83 bea708db 3e62041a 3ded829a be6ee6ab 3d5ea634 3d890d93 3f30e037 3e1e20a6 3df3bd0f 3dfa9641 3b330dc2 bde3bfad bd4ad592 bca04797 be048c45 beefbbcd 3eb96ee6 bdf9aa9f 3e5d3b6a 3dbd0cff bd81f3cc becfc6cf bd0b4235 bed9c300 3f98e9ec be9be087 bc704bdc bc972551 be3ee975 3e05e4c6 be0e1044 bc643c72 bc541bbd 3eead587 3e505e9c 3d63f511 3dcc2f75 bc128b0a 3e6ba037 bc330a35 be3578d0 3f00132b bd31b729 bf111f07 3e84a55e bd5564c8 be5c5175 bcdd2a8c bc92c4b9 bdf6d45a bd5d22aa 3d38f3b6 bce66ced bd35b154 3afe99ed be97f67e bdd2bd41 3e8c2dd1 bd8a6d24 bec73e89 3f15ade9 bea34286 be44eeaa 3ea16908 bdbdecec be157d11 3ea1ea12 be043076 3e0299ce bee27677 3e8b6b04 3d8eab3e bdc7dddd 3c29c3e3 bceefa91 3dbc49a6 bd77cd2b 3c7cf09b bf261e63 be0fb224 bde838e8 be02b903 bdc26350 3b413223 bd9de29e bccd11fa bd32a2cb 3f2107e6 3e83ce0f bdb54747 3e5c1ee5 3d964da1 bdb3e68a 3de553f7 3d4f1c6a bccb9eee 3e97f093 3cda0b0f 3cc57e94 3e71f10c bd0fff96 bda8edae 3d8bcb4b bdba0ea4 bda38f3d be5e6a8b bd9bb979 bde7651b bdc5d2da be3332ee bdb3e553 3d8b5cfe 3d35bffa bd4347ec bf35d8fb bbd8bd86 3d62c84e be1cb58a be18dba4 3d56b7c9 3e383dc8 3d989bd1 3e94ad85 3e8383a0 bd86b888 3e69e604 bd2e231b beaf088e bd3272e2 3e22a481 3c68786b 3ba5c1eb 3ea55e1b bd24a3cb 3d696f86 beeb743b 3ddda009 bd123aa6 be885a50 3e3645cc 3eb500da beda7249 bcc88936 3ea41c24 bb859c75 be8ad3f7 3cd9e0c0 be22dcba bd948131 3cabe5fb bea30420 bd966791 bd926c2c be626a0a bdfa70af
body.stage1.5.1.weight 64 3ec00013 3e3f6555 3ee02cc1 3e994e19 3ecbdf77 3eb47b75 3f1820ac 3f121240 3eb15bd3 3ef1bb0c 3ee2526d 3efb7117 3ecf651c 3ea72492 3f078439 3e1d3758 3efc17ea 3ed88107 3e9e1b40 3ed1952d 3e6d0c5b 3ec3821f 3ef54308 3f0266b0 3e96a6e8 3e309c81 3e88fc2f 3f17807d 3ed88100 3e9c9064 3eb651bb 3e74c26e 3e07f2e1 3efbbad6 3ea089f1 3e6e1ef6 3e9702a2 3e804882 3ecb6c6c 3f0aaf67 3ef0bb3b 3e7a52eb 3f02880c 3e46b6fe 3e43f861 3f065950 3ee21c06 3e94530b 3ecae916 3f092aee 3e8455e1 3f10f8c2 3efe93e5 3edd5334 3ee317fc 3e9ebf3a 3e6766ae 3ea5b799 3eac5c45 3edda22d 3f00341e 3ee383d7 3f071fbe 3f2f989d
body.stage1.5.1.bias 64 3d72492b 3f0e9351 bd9ac3e0 3e426b7f babc3a37 bd38d3a2 be1c1b52 be05442f baf98f02 bd666ae5 bd106c57 3ce4ade7 3d327ca4 bd74beb7 be257d0e 3e837366 bd8e742d 3c1a2204 3ea985a2 3f048f17 3ebf9e1b bc84d0b1 3e2d13c4 3bcbf063 3e0e73ab 3eaa4022 3e430487 be9b812f 3cc23c62 bdd3c6e1 3dd53dfc bca99d30 3ebf6126 3d84a6ca 3efcf239 3f4afd02 3c897430 bd0862c7 3a9c3f4f 3e761ae4 bcf0d9f8 3ea949bb 3c252a00 3ee1d88f 3eada34e 3d56bb83 bd0991a7 3ea13973 bd468ed6 3ec03b43 bb3e1307 bdb8ed87 be6b0e72 3dabe2ae bc822992 3d6d9cc5 3edd7507 3c336ad3 3e195da8 3e3e9449 bd24520c bcedbdad bd8a6df0 be8ae284
body.stage1.5.1.running_mean 64 be90a6ba 3e0ff3f1 3d14e9d6 be669ea6 3c19f946 3c4ec65f bed4375e bc6467eb 3d82a714 bb3e2e71 be039419 3e03e9a4 3d3f54c2 be03d85c bd79b492 3e76354a 3c273300 3cc46246 3eb1ba04 3e8545ce 3e238733 3d8f94c3 bd72428f be3abc51 bebdbe00 be1b58ef be545b98 be87f9da 3de90b90 3d725691 3cf9e53c 3c0c28ad be3b955c be9e9960 bee7f944 be28e0fa 3dcea9ee 3d18ac33 3ca80524 bed3518f bd634432 3e126e48 bd167ded be0f8bff bd378faf 3e14daff 3cadcbc9 3e541fad bd8067a7 bdac4c54 3e189c3b bcf400be bd586d54 3ba735c8 bb8419e0 bef314fc 3e6de55b 3cd68ed7 be7af656 bed59d14 3e1fb087 3c8cfc1c bd05c60c beb3a97c
body.stage1.5.1.running_var 64 3b7858b8 3bf8030b 3c118593 3b64f8b3 3ad0f421 3a501628 3cdf2c3f 3c10501d 3b3fc93a 3bbd31a3 3c004de6 3b308321 3b86aef3 39c23a34 3bba2ef8 3cdfd339 3c193587 39f257b6 3dbb3588 3ce887a5 3b302d45 3c18212f 3ae006ef 3beab00e 3ba6a5de 3c4a0ae0 3baeb7c2 3cd31da9 3c320342 3be5ea54 3bf4282b 3b7a2319 3b99f9fb 3c5407e2 3c3ce800 3c80c7f4 3bde6f30 3b0c6628 3aeb912d 3dff7160 3c0feb25 3c32cb6a 3b9aec13 3bb6aedb 3bfbc879 3c02a2b2 3b87f163 3d945459 3b864766 3c383456 3bb983ed 3c3ae8f5 3b96dce0 3b96fb23 3b864f94 3cf4b162 3d2836d4 3bb951a0 3b693caf 3d416d1c 3c1f47fd 3b15433a 3bc5ca80 3c3613f4
body.stage1.5.1.num_batches_tracked 1 48266200
body.stage1.5.3.weight 4096 bdc5dcd1 bd46ca2c 3e1432d3 3e23d897 bc9ca6b9 bdad2b9a 3d88752d 3d696703 3eb1122a 3ddb36c9 bd7741cc 3e30c08c 3d1b8c60 3ca96257 bcc1fa04 3e628ca0 3de6fa19 3d831f94 3dc5fad3 3e59faa4 be374149 3d899393 3daf59e0 3c9046cf bd81e50b bd8229bb befc695b 3e1a4c86 be82d7e1 bc9d570b 3d8776b5 3dad45d1 3e194606 bca8faeb 3c40d850 3cab86c1 3cb1c8aa 3a6cf8de 3d464976 bcc00120 3dd4f31f 3d3181a4 3e10f057 bea66662 bca6e515 3cacf7d2 3d8e8eb9 be04dee9 3e3377f8 bda4154e 3d90e1f5 bd84e155 bd727801 bd0cc883 bd452b83 3c32b478 bdd2d177 bd39a427 bde6c6df 3d29b9e8 bddda1e5 3d477933 3d92e1f0 3d817075 3e069ce0 bd4ee274 bb3119b8 3e368e61 3da86719 bdb4e37a bdcee812 bc60dd94 be19dada bc67e067 baebe1f5 3d1a2ec9 bdb3020e 3cfc6746 3d920dfa bc9e0aad bb2456e6 3cb98f6b bdf66466 bc216510 bdb8b605 be04422e be098867 3cb4f569 3dd55c79 3d9ae803 3d7ba967 bc202aef 3cdd6df6 3d148abe 3cdab147 be90c21b 3e2c0f13 3d8c4e4f 3dc30182 3dd2adab bd1e0f29 bc9558fa bd41e09e 3c9fdb12 bcbe01b8 bdb114e1 3b275e01 3c8fe3f2 bda99a0a 3db57871 bc8d381a bc47907e bce3912c 3d0bb828 3dd0dabf 3c30f6c9 bd48f839 3cbdb1bf bd892f4c 3d1c3f54 bdc25905 be120aea 3deeab19 bd39817c bd2a48de 3cfcc794 3c56da4a 3d095d33 3ddf3c49 bdf01207 3d6fe3b7 bd660de8 3c41781d 3c9fca78 bddbc106 bd819cd0 be262518 bd9c68d3 3b86ed9d 3d236dc3 3c96a8af bcb18f26 bce68db7 bdde0f58 bc0c7fe7 bc8a3af8 3ebfa29c be158521 bd196a94 bd2771d8 bd67d81b 3d2dd91c 3e15c30c bdeb7813 3d81919f bd42c9c9 3e3531a4 baf0f53e 3de0a430 bb26f36c be4b5df1 bd7a277f bdcf803e 3bf4d23e bd234837 3c1eec94 3c190d19 bc90b63d 3dca8d2c be02c5bd bd279698 3d16c428 3d98b89b 3d9d6658 3d92d106 3f440903 bd8246d2 bd52aed6 bc86771a bdf51b22 bba8f7c5 bc5b6c32 3cc17233 be084ac7 3d06cf91 3ca1cfa0 be8d1601 bcaa0359 bd88c229 3b7ea61d bd8f25c5 3d5f0f3c be3e3da9 bc536149 bcb8bb67 bdea14dc 3c9b7f36 bbd7317b 3d5efcf3 bda2e6e7 bd6d4748 3dfef7f5 3d8c03e4 3d314659 3c085dd2 3c8dc17c 3dd16900 3d54fd21 bd316b60 bdab9dfe bed9d21e bc394aa0 3dc81ec8 bccce810 3b73992d bd5275b7 beb2344d 3d9311c5 3e87917d bc038272 be563d97 bd1bda9a be03f467 3cb2e3e8 3dedecf7 bd203065 3d22d181 3c201ae9 3c40694b bdfc7179 be060018 3b0cbaa1 3cb41df7 3bbc05d1 bd54c5ba 3e139381 bd0bff2b bceea996 bda8e439 bf020311 3d8de2af 3de7d06f 3dbda184 3cfeef56 3e062bae 3daa6231 bc29f915 3f1794e2 3d1c72b9 bc82a20c 3ea4bb5c bd869a7f bc3a8411 bbeffb6b 3dbfb853 bd88845e bc815acc 3df422e9 bcb4f178 bcf1bb24 3dc0be91 bd3a7be7 bdc5b05f 3d12a3af 3db79a11 bdf8120f 3dac874e bc19ccc7 3c19925c bd3e55ad bbe92b21 bd82c604 3dcf2df1 3cc7d548 bd8af080 3d58e650 bd6eb62f 3dac3b46 3d56d36d bd6c20d6 3ead776d bdfbf296 3c597c36 3d0a3d83 bd33782e bd5f2283 be10ae4c bd5f938d 3d07b079 3d27ee53 be06e469 bc4feb20 be25cf85 bc9a110a 3b641d94 bd986bb0 bdc8f462 3ea96acd 3e261360 bcceae42 3b8b5434 bd1bf862 3b8f8d2f bcb1204c 3cc1f885 3dd2fd3d be17829d bbfb0387 3ded7e1c bd1bac4f 3d8c3516 3f388208 3c5c8087 bcd67e6f bd876477 bd85f77c 3dbeda82 3d92839f be3092b7 3c8d616d bcac06fd be8ece9a bd11e718 3c967852 3ce59687 bc48ea41 bcefc0ea 3d0c18de 3d3196b6 3d2d4814 3dc34676 3d6d2427 3e2f4367 3cc82674 3d9f735a be2548e1 bd9412a6 3d483b03 3ef7ba5f bbde47de bcc4da32 bcb8231c bd245cdd 3dbccbbf 3e6f340e bdca2766 bc82be70 3da10c84 3e1bb626 bc9057f4 3ddccf73 3d3b0477 3d834b06 3a650895 3e320977 bce44413 bd47d7cf 3d1081da 3dbd31da be1a74bf 3d8a3266 3da04e5a bcc0d7fd bbb67285 bd886417 bd1461bb 3b99de8e 3b73885f bde8f415 bc41197c bd4713e9 3ddc5dc1 bda89ff6 3d157cd7 bd53d882 bd643965 bde7ffec bc3f630d beae29fa bd3b56cf bce42226 bc0b37f1 3aee6894 3beab5bd bcccf521 bd310d22 bcb2145e bcf1987c 3e9fe8af 3be3601d 3df450c4 bdcd3d28 3d9c0a2e bd469a60 bd450fff 3d0cd7c4 bcbc96f5 3d3241d1 bd3f6bd5 bc81acb7 bd831b84 3e9658ba bd15e7fc bd42d6d9 3e30471a 3dc7266b 3dd55dd2 3cc818ea bcf5e07f 3e09a82b 3d89e2c2 3da75b19 3ce79ab1 3c6109d3 bc921291 3d0d701a 3cf5733f 3cfcfa49 3cc3a7d3 3d6c421a 3d58e022 bd1ddeba 3eafd059 bdadcc29 3c6dd15e 3bf19059 3d3fa069 bdc1bf9b 3dafefa4 3e221a54 3f3c079b 3d7eadb8 3ec34b84 3d219b7d 3cc1662d bd8039be 3c47f5f6 3d76ddd3 3f2e260d bd893b64 3d838a8e bd6f09f7 bcec2187 bd939330 3dd17615 3ef93aaf 3cf04853 3c054ba2 be401c87 bd8a20b1 bde134ed bd6820c6 3d1e4c9b bc296b6d be467ea3 3d0d8897 3b276960 bcb823d7 3d70380e bd8ebb65 3dbc111a bc8da015 bd542a22 3d19be80 3d90ccf8 3a0e408c 3db086c8 3d5bddff bd02957e bda6876b bd8651ed 3d6b6021 3e1dc2dc be39b8dd bd7a3171 3c68bbd9 3dc3930a 3afd74a1 bb7b024d bc8daacc 3d312fc2 bd2e2d34 3e43e411 be09d25e bccfd9a9 bcbb017d 3d0141ec 3d1f2961 bd906ba4 bc2a935a 3ce99f43 bdc8426d bd50929b 3d120f65 3b3b5b7f 3bed53a8 3d9adfe6 bd2d306e bd7fdaed 3df64b7b bcb7ad75 bb406feb 3d08ec05 3de9d3f9 3dc50807 ba3a18a4 be289a12 bddedb7f 3d2252fb 3cc571d1 3ce959bc 3d66afaa 3bad03b3 bbb98553 3e840150 be84eec5 bb9ab695 3dceddcf be93a7d0 bd531cc4 be05c92e be0dbcac be222aa7 be56ed8c bc8639d2 3df41e8b 3efe4244 bd879750 bdcbc52c 3e02db88 3dcc5431 be5e290c 3df362cd bd8962af be28c63d be14b90e 3c4c909d bd19f8d9 be8614be bdac83ab be01264b bc3c67cd bc09a1b1 3c16b27a 3d6af646 be152ac5 3dbc7849 3d9ea312 3e2cd5af 3d86068f beac559d be049c98 bdb9ec08 3e9ebde9 3cc075c4 3e447a7b 3e3ca8ef be5e28a7 bda61fb0 3d98165b bd74990d 3ded051b bd394401 3ce0b794 3c2b8ddc 3e402cd5 3cb713d1 be06a678 bdbceaf6 3dc4c2bd 3bc4e1b9 bed429ed bd115665 bc7827d8 be2e9391 bd67a6b4 be178cda be54371a 3d70279d 3d248a68 bd618bd6 bc86ea70 3d7e2aa1 be221ab9 3b9435f6 bd99d42b 3d64591b bd9b505b 3efc89ff bd82352b be1bf72f ba624039 3e1601d6 be005a1b bdcf35a4 bd0de4cf bcce0e17 bd40b1d2 bd935d05 3e70280c bdae9e36 bcf830b0 bdae5090 3dc782a4 3d9e029b 3d411bf1 bc7030f8 bdb36e59 3da6b5c6 bdca3356 3dbe95e6 bbd346f1 bdba72b9 3c95f392 3e39b6e3 bd0dbd2e bcdd9570 bc962c24 3dc1ec57 3e1c3d2e bda40400 3e14f9b2 bc63c09b be15a7ca bd47f42b be2a7843 bd5984c4 3dcd4cff bc3f24f8 be23c4d5 bd563c8e be20f80b bb1e58de 3d0a9881 bdc2d60f bcc8fa7c bd2a9940 bd833bdc 3e1e3fd3 bdf32d75 ba9a24b2 3c26a08a 3c328437 bdc4e236 3bc6ce0e 3db022af bd1b4401 3e321958 be118251 3d0088dc 3bfb2528 bbbfa5bb bd8f2b86 bdaff378 3d33ca0c bf200b81 bcf86256 bc487075 3e751a25 3d01caaf 3dcf4a97 3d3ec8a8 bd55ff7e bd2d208e 3e20316f 3db57365 bc13f2fe bc0b0a19 3ebced3a bcf20bb4 3e9f5beb be03619c be80adf7 bd2bbeeb 3e01fc93 bd795d0f bd77c26a bd034b3b bd1c3628 3c61f43f bc032423 3d191742 bd6062fb 3d98a1da 3d4e80f8 bd802f03 3c50da01 be834d3d bcf6f530 3b94abd5 be5d8b8f 3dc886b0 3de8eeb3 3d8296e5 3d6fdb23 be47a834 3d203c24 baa1d1a6 be13b9e3 bca22a98 3c0596b4 3d41830a bcab1b53 3dc04d98 bea09a93 3e82e861 bd8bed5a be4c506f 3ca9cb33 3cb78bb9 bcf5740b bc00b5f8 3c425422 bdfae4c5 3d9541c7 3d7c45ba 3cf2d932 3c21540a 3d40171a be15cbbc bde78aa7 3d0085ff 3c0aa09a 3e61d767 3d7d943e bdaed661 bb9ec38a 3c567c18 bdd52697 bd1fc3c6 3def9c2f 3e179857 3eae1bd3 bd4116df bd347f68 3dea4590 3e033c28 bd63f9bc bd6c0a29 3dd07844 3d6a9ad4 3c05ee40 bc826e4e be155a3b 3db57e65 bd9b1bdd bdb39add 3df06a41 3bf76a66 bd06598f 3d4d4993 be555752 3ddc0ae3 3d970bae be2bc018 bda63065 bdd04191 3de15fb7 3daa07ad 3ea1aa22 be35b838 3cd0bc3a be79ca9e bce90a6f bd8dc184 3db59ed9 bd85c3a1 bdb0bdcd be67518f 3d199115 3d473398 3cf5da09 3d58d31b bd39ae3a be2a4e0e 3e41569d 3e06b9a4 bcb653fc 3d36ee37 bc35a589 be20822f 3b1621c5 bdded531 3e50346e 3d93dc45 3e0f0722 3dc48631 3f279633 be0ad31c 3de845b6 bd8dbf94 3ddedf29 3e13ed8d be11305e bcbaa6fe bd69b570 3d9a2f26 bc9e73f6 3e429f72 3df1d44a bde18738 be48c9bb bd8b818e 3c05e474 bca82a03 bd617dba bd8d1033 bde554e8 3e18bdfa 3ee07a7d bc7a4221 3d88dd90 bc801dca be15a269 3d0ccead 3dc1573c 3d0a3dec 3e232eb1 be955927 3e11ba55 3d8a8430 3d8b421c 3e06a3c2 bbed3b27 3e992618 bd886166 bd429a64 3dee2714 3dc6a3f0 3d1477ff 3d135566 bdf29642 3c104647 3c6311ec bc4446f8 bde59fdd bdf8feac 3ddae201 3e352c57 3edc2ccc 3e311ada be1673d7 3e96fcc1 3e1928d7 bdae0574 3de17c7c 3b4e66ea bcc91bda 3f22efd3 3e1a3393 bd5a8c9f 3d08d387 bdb44123 bcaaa77e bd12b592 3ecfd751 bc7f3f70 bd73d6c2 bc4b4a9e be0e0027 be3ef194 3ed6eeb9 be066276 bdc12a0d 3d948bfd 3ce05616 bd3d5f1d 3e9084f7 3e85989c 3e3d0537 3d0073f6 be19f5d2 bdd127d3 3d17da72 be062fb4 bda3ef41 3dfa506a 3d60b569 3db7d28c bc4bae19 3de2ae79 3dcb8dff bd9d61ed 3ed96b62 bdd96ec8 3e6e4c7a 3c70a096 be0eba06 bd937197 3e95701c bcfb9882 bc19f31d bde81443 bdb09cb7 3dfc0ec5 3e1afde1 3e070386 3e1eee58 3e832966 bdd6c9b5 bd86a86a 3d1ff7f1 beb02909 bc95faa2 3d827bf5 3e6faf5e be07e273 be7d37dd 3e3ac2ba 3dbcd61d bdefc9ea bd486f6c 3e12863e 3e0fa1af 3d89aa90 bd948679 3e5b227d bd08705d be92ebac bbdabb1e bc958630 3d4fbb8b 3e520443 bdcbafbb bdc826dd bdb4250a bd58ecfc 3e50087a bc6c2995 bdeb2fa1 be73c561 3e05c725 be1b846a bdfa1a7d bdd3db0b be0fc536 3e90dc77 bdd84b5f be6bef9d beb2cc5f 3e819ef2 be93a932 3d660232 3d28a698 3e49de53 3edc028a 3d00c173 3cb4ff1a bd9995ba 3e0b9614 3baf6bf8 3e1ba910 bd3f3521 bd9ce163 3db88a59 be093e6e 3e3a90ed bcd4d1f4 3caa44c8 bd8e98dc bcbddc48 bde08810 bdc2e912 3e00227a bd2aea96 3c826ab9 bdf7398a 3d51a979 3e8f8294 3b8d51ec 3dd52675 3c61e6fa 3e51a103 bd75f408 be060bae bdc63bfe 3e22e8dd be0f8d93 3caec87a bd2fda77 3f245966 3d98ba09 3c6b3696 3d8e8c5c bd48a578 bdb3ad28 3dae8f8b 3cffdec8 bac82bb9 bdf6b0fe 3c46964a 3def6cfd bd575b24 bdd189b6 3c2e3273 3de0f148 3e5a4a8c be06e165 3e010f44 bef23868 3e20c7ea 3e036e1a bda14b85 bd293651 3e306357 be0ebca1 3cdf7434 3deddc2c be029c83 3dd6fbc7 bd00ab66 3df8a928 3e1a41d2 be356ac9 bbe551ec 3c383c0c bb5ccea8 be052abb 3dd3b239 3dc9f253 be1b39fd 3bfe1ccd be1a5fdb 3d295348 3a0ba637 3d70942f 3cbd0759 bad9eb96 3d230948 3d370119 be29c558 bc6dc2ef bb9dfb6b bd63889b 3dec1482 bd33c35a 3d55c51e 3ccb0294 bd8e3c09 bc236ba9 3d456aa2 3cb96d95 3c226c00 3e26b486 bd714669 3bdd07bc bdb769b5 3d0abd5a bdbc1bd0 bdca3424 bcf50751 3e300e84 bd18d62f 3da9bcbe 3b87e7a7 3c3dfd16 3db40749 bd6f6044 3e8aaf57 bda59e56 ba03f092 3d390ea2 3cb94142 3d0acbd2 b9a218d3 bcc0dfd8 bccd1552 be2bd97e 3c0e4087 bc1fc6f3 3b52e4d1 bd914d05 3d3510cf bd01af73 bd2d67f6 3e1282cd 3d3cf798 3b1fa714 bd21b853 bdd9d88b bd3dd500 3d934093 bcde4ee6 3dcf55bd bbfa8248 3935c166 bd5e4ca6 3ded6ea4 3e0e5259 3a0465d0 3df3154c bc6b260c bcf22a61 bdcb6a66 3e57d7db be3ab1ce bd3cd6ba 3e07a68e 3cb47c30 3cb0cce0 3bf176ca 3d9c81e5 bd64e9e4 3da4a249 bd3414de 3db1920b bd618bc2 3e63a796 bd550b76 3d332f75 3d1b3ecc bd261aa4 bd138d72 3cd556df 3c07b189 bd8f457d bd33d341 bd4366ca bb0b20c0 3d32434b bcbb1636 3d5e7271 bd922c71 3d0efe12 3e147e65 bd889ebb bd5f7a7d 3e1320cc 3d218655 bc2fb0c4 3d606f77 3dc9f5d5 3d28a9cb bd1d0edd bc9e0e88 3deb23ca bd8ff507 3d0ff7a7 3dcd31f2 bd07796f 3daa8520 bc2e1b21 bba21070 bd8f749d 3d136485 bcc7b6b8 3c8d7c16 bb21f515 3daf9c59 bc8456ab bde2386e bd99377c bd8f6828 3cd69e0c bdf0194f 3da842d4 3e0558a0 be027337 3e679547 3d3c045c be4e80f3 3c918775 3da3e69f 3e125b28 3e1c8392 bdd02ba3 bce49041 3d1fc74d bd4f2f07 bce114a4 bd1aa8d4 3c07ea16 3dc27863 bd84960d bd0a17da bd080be6 bd4546e9 be5058c1 bd9001ed 3ca63f4f 3ccec184 bd8bf950 bd6eb3c6 bcd42dc9 3df9ecdc be0886e2 3e853713 3e3aef27 bd884d97 be451be7 3e806734 3f057479 bdbe8fc3 bd8495be 3dc553f8 3dfc4fc0 3cee561c bab9cb6b bd90b184 3dbb7073 3d635205 3ddaef8c bd24c333 be00822c 3d7271ab be5d42b2 3d5a3c74 3caf6797 3d667c16 bde09af1 bdba4b0c bf041914 3e3c1cc6 3d31c179 be30b682 3e1e6bc3 bb247ee8 3db1a69b be1c0e9d bd490830 3dcb0d20 be1dfdc8 3c9f044b 3e8e8016 bd8bc116 bdcb366d bd4b909f 3ea22852 bdb49913 bc31c251 bacab1e7 bd3b6351 bd4d7476 bdf9d840 3c5d019d 3d7b36ba 3d1a27bd 3db85649 bc404779 3d850f20 be506ddc bdb79d38 3ebf8089 be255650 3caae3c9 3d2094af 3c5be3e2 bdaa0472 bda9e491 3d1d7a89 3a53d202 bcff6641 3e3a64f7 3db25312 3d851bbc 3d08042e bd690e9b be0d7753 be00e3af 3e9f6f81 bbd7314b 3e22d536 3d14aeb4 3e534df1 be20ca95 be02a908 3e103d3d 393549eb 3d7ff58e bdf33a52 3d0b9c73 bd0201ff bc4b25d2 3d3a1c1c bc5ed8b4 3d9055be bd187fd2 3d5b4ea5 3e5d42dc 3ca43622 3d81e4f1 3cde50e2 bdde2588 bd7c1c55 3da15b6c 38a22ed6 3dc9350d 3e77b43e 3a8bea71 be664b60 bde25d7b 3c4f1ddd bc9839b7 be00b830 bd91b1ec 3d827c0a 3e728ab0 bd4c40ec bb5db473 bd8bd6c1 bd42e8c0 be221a5e be2b3c60 3eb432c7 bc20f3e0 3dee7fe1 bd367c6c be66efda bd1e62ff 3e21a127 bd020981 be75a7ef bce977dc 3cb815af be852726 3eeeda4e 3db0a388 3e257da1 bd7f928e 3e2f46ed be96f30c bd8c9439 bddfde71 3ccd75b9 3e0bd922 3d8b9192 3cb38487 3a4adfa1 3b899384 bc10e753 be245ebf 3ea2a38c 3d5a1782 3e78982b 3c96b8ed 3df5224e 3e007a0d 3dfa4360 bd9e6f84 3a3fa85a bccbee0a 3dcc7791 bc0786d6 3e08c6cd 3e21c877 be94aab3 3d55f0da bce7442a bc213ff3 bd7275be bce30c0f 3ccf709d 3d399fb9 3db3e0bb bd80d29a 3da7fb0a bb81c9a4 3d622e3d be3d4385 beaa0acb bbe7ec13 3cbf7cee bea8b360 3e41163d bc05db84 3ca62fb0 3da8e850 3d9a96e7 3d5e0d70 3daa7d2f be3442c9 3c567653 bed31cbe 3c8a7a1a 3f0a8d12 3d992198 bea62c46 bc6c39d5 3dc25035 bd19cdcb bb43bf3e bd096d72 3cf0a838 bd0f68e5 3e1b3e00 3bb0d6ce bc88b74c 3cb9bc90 3cb9242d bd216e1d 3c00f15f be5ace24 3d10cef5 3cedd437 be0144f2 bd4ae8d8 3dee293d 3ceda944 bdb06f0f 3dfb7f2e bc571743 bbe06b27 be301508 bd9ef5ab ba689e71 3cad384b 3dd28f84 bc28db6e 3c3d9ee3 3d0ad98b 3d2588fa 3e95a33b 3c114610 3d140865 be2c012d 3e47f113 3d58bd89 3e12f1c1 3d73706f 3b9aed1a be1b0c9c bdc48cd3 3c950ee7 bdf30876 3d6bcadc bdf1d087 be9469cb 3d0bda30 be0d4c73 bcca3105 bdc78c00 bccb8eed bd27e09c 3d418574 bd257321 be8daf53 3d991b76 bc1b5af4 3d1a589a bd9ac6c2 bdbd8e48 be1120d0 bd2e5f16 be24fb1e 3ce74595 bd59b1da bd9c26ea be04162d bd1f3e56 bdd1b13b 3d6f74bb 3e7e978d bb104057 3dd5580a 3cb5e76c bd4920d3 3df3965f 3e081615 bd8657ef 3e2fe523 3d5d4c6b be1f8d8d bbc261f9 3bd9844b 3f16aeba bdaa08ec bded8a41 bd3cfa97 3dc1dcfc bbcadecc 3cf69594 be1fb37c 3e1048ec 3e8ecfaa 3d1d0658 3da4f838 bcbf0a48 bca1078e bdaadccf 3dcbf3af bde9179b 3d6d9b05 3aeee785 3d3d6b5b bd25a22c 3c825f6f 3d034a65 3de2361d 3db57b95 3d6f2eef 3e83f405 3df4d888 bd16edcf 3df4c1d7 bd20e23d bcf6fb7c bc5d8652 3cee6048 be6cd5ae bd5b20e4 3ebf59ad 3da67e43 bdd843b0 bc8cad12 3db182ce bd0c8595 3d6bf21c bc8733b8 bd23adf1 bac7d048 bbd48870 bcf40558 3caf2943 3d49a3f4 bd01d86d be6dd5ed 3d51a4bb 3c80d0ed bc301f86 bc95cda5 3c9e9c68 3da599ad be537a43 3d1a0bbd bd4c704a 3d78376d 3cee4bf9 3d7f3d17 3e0c6aaa 3b088293 bd0717e7 3cddd8f4 3ccdc5dd bd0f45fa bd67de67 bd363e14 bd8527b3 bdcafd53 3eb84021 3ce479fb bdde1e34 3cececa5 3d14d396 3dac30b3 bd0b3f96 3dfda39e be800db9 be1d0fb1 bd86f19b bd59374d bda037af bd8454bc 3d044b9f 3ebc3334 bdbe8651 bf1cd056 bd214097 3e267547 3a546877 3e5cb8b5 3d40072d 3d507539 3e389ad6 becbbb78 3e21ad69 bc99a90f 3d072a53 3dd12297 3d81a79f 3d5e01eb 3d0d497d bda47e32 3da08a99 3ac5ead1 be1fae9f 3d366726 3dca86b0 bd410e05 3d5f1ab8 bd917077 3d16789d 3dede1c8 3def59f1 bae85f7e 3e0144db 3d7f2b6a bd59d91a 3e62495c bdf6525e 3d75cfbf 3d672832 3c0d789a 3e3361ca bde8813d bded4bf4 bde3bb60 3e847385 bd078101 3d0db299 3e74a474 3d487e42 be772b70 3dcc9845 bda4b79d 3d2e32ae be052779 bde2e98e bdc67619 bcae1ce9 bc0cf06a bdceae3b 3b6aff12 3d68707f bdc2a828 3e35b967 bc582ca7 be02fac9 3e101fec bdac3589 3e8d686a be35babe 3d7d6ca4 bd752887 bddfbcbc 3e34ecda beac74d8 3e02b605 3ef018e3 bd245551 bc898ece bc0c8601 3d7632e1 be8f3bb3 be2ad7d3 3dbd700c be52944d 3c9012e9 bada1c37 3d838d38 bd28b563 bc30252e bd9f7a41 bcfdcb4e 3da315ca bd00727d 3d53bc36 bdb4cc49 bdd2beb6 bd4f237a bd959fa9 3df6034d bbf8c84e 3df6dc42 3dac39ea 3d9116b4 3ca1098a bec4d691 ba62526b be49e07c 3e54757a bd3f5340 bcba749d bd7482c2 bde4a4fa bd133fe7 3b462cbd bc930d9d 3db1f17c 3e8ac84f bdf94046 be55fa74 3e051957 3d6f1735 bd14f327 3e748c24 be8fd444 3d9b5ab2 3d9a6254 bdd82a31 bbcae8df 3d97b4fc bda6c4ec bd76989f bda94c8d 3e063524 be17a0f4 bdafae58 3dd9a1c5 bc8521a7 3da5f247 bd7322c7 3e130cf4 bd38bf0b 3e2458b2 bd9c3ed4 bdbee952 3dcf213d be3c389b 3e329fb4 3e459b86 bdd3beb9 3d70790e 3e05436b bb816fa2 be2ff0d0 bc824d11 bd8f8b61 3d87f80e beb4a834 be12e914 3da84713 3d433c74 bde9d691 3e221092 bd5b7b62 3ea842a6 3ce3260f be11d17e 3dee9f7e 3d9da02b be522abd 3d0e2dc5 bdff82d1 3ec8a077 3c54d75c 3e901c5e 3e805076 3d59d3f1 bea9abc4 bc342932 3c8268eb bda0b9a6 bcf4b954 bd2b3a83 bbcac9d1 bc94c188 bc7baec0 bd3860de bd7c6ee8 bb32302a 3d276e7d bb91d9f5 ba18df80 3e35988b 3cb37989 bc369074 be460de5 bd6afca1 bdad8636 3d6f010c 3dd25589 3cdf1744 be999ef6 bd9ade71 bcdda036 3c1bf0af bd43631a bbe16eb0 3d0a094a 3db753c5 3d80f31a 3db42b2e 3c3035e9 bc211844 3e2b4805 bc281693 3d903f3d 3b3e4f05 bd81644c 3e52e0b8 3d9e2b04 3e801251 3d0015d5 3d583ac3 bd6ef9f2 3ef273f9 3d9ca8a5 3c31619f 3e378a81 3da444df bd9dc607 bdadd60f bd5435a4 beaf2658 3cb8dc17 bd231047 3e458d75 3de8bd0c 3e7d995f bc0966b9 3d09446b 3cf3a0b3 bd203249 3dee9482 bcbe22da be6ca1c1 be1a8e5a 3d0e4cf6 3e2fdd40 3b849fa1 3de7c60b 3e2fef1b 3d554ab7 3df4bf4b 3db27064 bd330603 3da03718 3d07b91c 3c8e80de 3df57ed3 3c1cdce8 be247b8b 3e39e484 3e5e2dbc 3ddccc52 3d138ebb 3d3d715f 3c6e0e5d 3de44509 3ef76461 bd87f78f bc9736c9 bced5cc1 3cd37817 3cd99e6e 3e9d6d05 be760e55 3e51645a 3e3a4362 3bdff5bb 3dea534f 3cf74cef 3df6b0fd 3daed3e4 3d0f9a9f be196762 3e05e8e2 3dfc8145 bd98ca73 3d2ea6c9 3dde1684 3e2227d4 3d708fc7 3c8e6ed1 3cfe2eb3 3e2ef7c2 3c17ec73 bdd963aa bf020d44 bc0379c2 3c8509e9 3dfbe174 3de30f52 be1c58f3 bcc3484a 3db83dc1 bd8f2e93 3d0a04bf 3e112525 be693c43 3e08d3a6 bdc5f6ab bdb8f90e bdc5ff5b 3b1e3526 bc18fc15 ba0a1691 3d76735a bdce2747 3cf9e576 bde01ae0 bd882a2f bda23858 bcece451 bdc67043 3d92256a 3b1b0a05 3d8026bf 3e020e97 bc4910bf bd41de9d 3c6e2175 be26111e 3e64d051 3e7df7ee bcfaa310 3da53334 be1e6809 3cd12e48 3ece16f4 bebecfa8 bd83f381 bd84169e bd84252f be57e18a 3d7b274b bdd3955a 3cb0e877 3d22c048 3d190461 bdafbace be16ab87 bc9cf072 3da8597a bde4f07f bc0a81d4 3ca55535 bd97dbcf 3f1bf04d 3cc8bddd bd42ecd9 be0e5fc8 bdb9c6dc bd5eebf4 3c68f73e bdb67f87 bdb2df82 3e21cf73 3d01443e bddb601e bd2ad9b8 be864b5f bc862668 3d134155 3cf32e12 bc8c95db be0cbe67 bc241019 bbde337a 3d383e8a 3dbe544a 3e0ea845 bd6ff1b8 3d0d2f7e 3d4c1553 3e88606a bada575e bce66bdc bec3324b 3d8a7e51 3cff4b78 bce907e7 bc9de155 3d4a3009 3d25acfe bd0c9799 3e6cc434 bb025726 3deaeabd 3d933a6f 3e0e8d3d bcf043f7 bed8a664 bdd32371 bdbcc8ba 3d62e8b2 bda916f7 3da5b00a bd02573b bb5424b4 3ca3c0de be1db3fb 3c1850b3 be687b5b 3d6774dd bd029830 3ddbec16 bda55099 bcac18aa 3eafc3d6 3e96e786 be54a798 be3661ad 3d7951b7 3d05ebab be33f2e1 bd9ed84d 3db7a3b9 3e5660a9 bcbbca1b bc8916eb 3db3a836 be41b64c 3cf61c1a ba67cafc bd0bbd41 3e417844 be1b8b75 3e3af4df 3e923fc8 bedfe5ba bdc12820 be397eb0 bda3a65c 3dc245f0 3e22e2e5 3d1363e4 bc14c45a bd61d86e bd1028f9 be5c3781 bd11b72c bdb46f50 bdd89b74 3c9161a1 bca58390 3d4391de be34fb35 3ba828eb bd433627 bd92c356 be7898bc 3da78f1d 3e4a4011 3c6cc7a9 3b4faa11 3a39a2fd be1189dd 3e736c86 bef25ddf bdb445b2 3e6706c3 3c1d172f 3da5f86e 3c644072 3db2444d bd1c27e9 bcba7a89 3e27d6c1 be2a6c40 3d5034a0 bdd912d6 be522fce bd780fdf 3c015372 be327d4c 3e280c10 bc8c42d1 bd0988d9 bd407125 3e1e7d7b 3e852013 bcabb3e1 bcb5ab8e bd99e024 3e1e9c89 bd5a537f bd2c731c 3dc30d2c bd0f2c14 3dc6db50 3d501803 3c6620f2 3d98eaf6 3e2e232f bdc593dd 3caf104e be85f97d be1d4adc 3d85e9e6 bddd51f5 3d33c6e6 be4dcd6f bd4a0ffa be40a9b4 bace2424 bc04ca89 3d6e5de0 be7c154f bdbe72e8 3d42e382 3c4049f7 bd7da18a 3d8fcfe7 3d9608a7 3dff5a74 be575b49 be0035a3 bb02e1ab 3acdd522 3e668c50 3d0492f1 3ddbc5ae 3dc9a59c bd75c6bc bca90119 bdf29bc7 3e385445 bdf379a1 3aed40bc 3db4c5b7 3cf7e4fc be48f0e4 3f03fe64 3da6f77f bd963b9e be0e7559 bf0d14bb 3d177b74 be57b59c be0dfbe2 3cea6128 bdcc4152 be37b0a9 be3f1a76 bbd37877 bd60615c 3d83ef25 be055621 bc05be70 3ce95dc8 3d77a5ae bc099e04 3da4a430 3d673291 3d9501e4 bd23240c bd40faf6 be4b95ad bd8425ba 3cf3b48c 3e74ee9e be140fe4 be152ea9 bda7f5ae bd8b1a5a bd068e49 bdf73fc8 bb1f053e 3d5680af bc7f3108 bea7df10 3c721a0e 3e33f2d0 3e2f95cd bd5acbdf bd625d29 bd329c48 3d35f398 3ec31017 3a7be29c bd9059e2 bd59bc65 3c001f58 3d8cf56c be1389a6 3f15dfa4 bdcdb65a 3e31f7a6 be101dd8 be0df2c6 bcecda9f 3d04b705 bd973530 3dd94007 bd4c03a9 bd707067 bde61c44 399f486a 3d01612c 3de1824a 3db44849 bc6fc75e bd2e867b be85b452 bcb837c7 bcb6a843 3c919666 bed15763 bdd22af1 3e12584c 3d0f7e3c 3dc2f8c4 bd2a08e5 3c26854a 3e8ff0d9 bec97608 bd330973 bd523cfb 3e2977f6 3d5b0e52 bd2d6a50 3be3d6da bb17b07f bd2a1292 3cf9219b 3d1a36cc 3e2a6059 bd08f28a bd8cde98 bbe91862 3ed69892 bdabc925 3d97f9b9 3e82673a 3d171575 3c42e117 3dbfac59 be41566e bd849fc2 be3df83e be5fabfb bd630e42 3d8c62b8 3eefd683 bc2b666a be63f9e8 bd891556 3e174b35 be02eb39 bdf55d1c bdaf0f34 bd86eb04 bd316d9a 3d6b4b8d bc3d3806 bd8b10e8 bda11568 bdade7ff bdbc5d7b 3ce31f26 bceebd1b 3c6b455c be962073 bdc2d004 3d663e45 be0d767b bcf746c6 3d1f8171 3dc5c589 3dd0c02b be252e07 bdbcb8b3 bd01caae be1f2319 3d10da82 3c768723 3d2334c6 bcbac208 3b3cc9b3 bcb72c00 bebc75ef 3dfea05c bd86861a 3c10be25 3d5fbedb 3d881f0b bda3b59c be013995 bdc7c55d bd74dfce bd182911 bdd077e8 bc621181 bcfb1b50 3f0463e2 bdd4cf56 3cb25239 3e8056b6 bcf1c2d9 3d97ff9b bda71047 be326a19 3cb05aa7 bcf510b9 bd3c679a 3d954bbc 3d886be1 3eb39505 3c5ac715 3e53c2c8 3d522749 3bf3a913 3d64ae72 3e08fd34 3c2ecb36 bd460cdd 3c7577d7 bcad4f82 bdf5c698 3dd09fe5 bda2dd38 be160397 3e55e717 3d2b32ba bda36b4b 3b248fcc be316657 bc400828 bd980712 3d9166e1 3c6a6c05 ba35dcde 3dcbd8b6 3cb04e6f 3e8a6ccf bd872d14 bc95bd97 3e63d9d0 3c36a5a6 bdb4e948 3d2b048c bddf4576 b9b7c18e 3d57ad82 bd96e203 bd8d7bd9 bdd312dc bcd01e20 3c9ce57c bd846521 3d8d86b5 bd03e957 bcc6379f 3e458cea 3c925d1a 3e1295a4 bcd70aeb bdb05a54 bc933488 3de3d0e1 3bbbeb28 3d44b049 3dec49c6 bdc04b65 bc3a1f6f bd3d33ba 3db11c43 bdbc36f9 bc051157 bda1eaf5 3e456924 3b2079d1 3d5027f4 bd5b17b2 bde1dcb3 bde9e796 3d4d1998 3e9e05d7 bde12586 3c3e7f84 3de4bd9c 3d66e78e 3d8ced87 bd1dbca6 bddcdc46 bd88968f bde07145 3d81b81d bc579eca 3d3089ad bcff4d1f 3cbca528 bd642ddf 3a1081fa 3d4b340d 3dded98b 3ce5163d bcf73878 be0b7282 bdde53d6 3db7e25f bb5c7516 3d648169 bdb5b23e 3c2dfa3c bb8b8a4c 3e6fc31f 3e105d85 be2d7522 3d04c1c4 bd7c635f bc82ba2e 3a7984dd 3b8ccee5 3e28864e bd9e904b bcd87046 bc77e6c0 3e116cc2 3dc43079 baca6dd0 3c66fa43 3e668519 bdb0de20 3e6084e8 bc9e3c37 bd0ff2a0 bcfe61ca 3c9e1fff be0867a4 bd9bfe66 be702805 3c161fac be014905 bc73582f bd999a8a 3a4be728 3e2f80f9 bdb0bf82 be31832b bd11fe84 bca71303 bbbbf398 bd834f0f 3d50bdc4 3dfc4274 bddd3dc4 bc81cf9d be2e8170 be021581 bc98d2af 3d777da9 be0095b7 bc9ccb8e 3dea0aef bd1b14e9 3d15b3a6 3edb529b 3d5f1627 3e2e9c52 3dbfa12f 3d1c6393 3ceb2f5d bca46d5e 3977d150 bbbaa8a1 be069e90 3d75e2e1 bc074ac3 bbfac63c bcdcbdc1 3bbea439 3dd337d0 3c5eadf8 bd586017 3c8529f6 bcc64cfc 3db18b43 bb8c27ee bd852197 3db31e41 bd635da7 3d38e581 bdcc8af4 3d191233 3a868977 3e522eb7 bdf05fbd 3d3bf58e 3f59388c 3cd2361a bd12a03d 3d120a63 3c4cc7e2 3db5fb27 be2f650a bd160c3a 3cfcedb6 39f2d2a7 bdba5ba4 3d35836a bb9160a9 3bf98872 3ec6d956 bd848219 bd206de3 be113643 bd83724c 3cf59a9f 3d5abb44 be15960a 3bdbd671 be44c92b 3d837e0d 3e835b3d bd6c6fd2 3d4451df 3c4a0585 bdef0043 bc87fd6f be2dbff7 bead9231 3d933a93 3de9b0ac ba4b4e67 3c8d3577 3e378250 bd4f516c 3da4b160 3e3f6774 3d1d5cb5 3dd5302c bb5da8f4 bdc22c8e bd293cc5 3d07dd7f 3e2a0124 bd62cdd2 bd30e219 bd16573c 3dab8397 3eb745fd bea1ed02 bd67dd17 3e3d7961 3e276874 3ece0f60 3e287071 3dafa7df bd83accc 3d85f235 bd4609a5 bda2ea1f bd9bbb49 be115063 be1f72b7 3d86db10 3e73fb03 be10e145 3ddea236 3e245e17 3d505bb0 be8f0269 3d423fd1 3db0e3c0 3d9fbace 3dae044f bd155e61 3ea3b615 be9c37e6 bd9d430e be03bd00 bd67b695 3d526f27 3da576ea 3e273496 3cffa99d 3d744ad1 3e3271cd 3ee3ea18 3cf65dba 3c321199 3cbb6527 bde3f249 be6375d4 bda76e88 be44a988 bd8eaf4f 3df87773 bd962e63 bc68c697 3e6e4ce1 3cffe522 3d51b320 bd202398 bcd9a729 3cae2cd7 be06dcea beb67388 bd84adbc bd1653ac be2080df 3b474773 bd7fe64b 3d121918 be0183e5 be2c4b4e 3e4635a1 3d0cd1a8 bc8dba64 3e8cb9bf bca1c276 3c32a23a bdae2439 3d092e7c bd871f8e be579d0f 3da7b08b be565f05 bdf69594 3e0b41f5 3e683d12 be41637d 37af268a bd7cc2a7 3db27d1c bd6cfbd7 3e0ed339 bdeafed4 3d5de085 bdbc4a38 3cbb9f48 3df1c734 3d886440 bdcab892 3e801a54 bd7c8ebd 3cb3f05d be0025fc baa8e74a be10f89d be9e7d49 3d54875d bd38854e be4301f3 3d1d3f09 bc7b1555 be3c20e1 bd4eeffd bca37b9c be253188 3dfbda55 3cfa0cdf 3be7b4f8 3d7ddd11 3d43db27 be138d9b bdf3bfbf 3ca69dea beb03c21 3d3e07c7 3e4f52e2 bddb5443 bd45c80d bc8f2518 bdcd61ba 3d9bdf49 bd2993af bd4faf70 3dd54700 3dad1c5a be0be0f5 bd188b4d 3e1263c1 bd7235e0 3e030630 bdf840ff 3e008ca5 bd587d2e bbe6fba9 3e373a78 3d55dc1b 3df06276 be4c7223 bc5f3beb bcfab6e1 3df74f6a bafc4d4b be8173d2 bd234384 bd55d418 3d2caaec bc8efb26 3bbb2b30 3dc4c6be 3c803de3 be43318e 3e0f6e18 3e11f2e3 bd2a06ee bc6214ad 3ee3f9f8 3f000d00 3dc6411d bcc7d095 bc2fd972 bbdf7c7c 3e0742aa bdb5e839 bc28bfca bcb63c1b 3d92b427 3d642f62 bd7c27db 3cb900af bcf0fc17 3c147de7 bd32ffee bcbf3906 bd44a5bd bc11d4c9 bd3dbcc9 be4b2718 3e236437 bd1a62f9 3dad5a01 3d3353af bd143a25 3d8a6f0f bc8e7628 3cd3cbf7 3d240360 bceceed2 bb83ec58 be039f23 3d2ab3dc bd04f151 bd9f8813 bcf7f60c be120c05 3ca9a873 bbd77d9a 3cda497d bce7103d 3c8307bb bdf0a553 3d09857b bd2331bf bcbc293c bb809378 3b14675f be847239 3e1f7ec3 3ca9dd37 3d367728 bc9c0826 bd1d889d 3d61b836 bd79db29 38f9dc54 bd0cf810 3da2fe8e 3e004290 bd6c3ede bd564952 3c31fc1a bb014d00 3bcbcf59 bd4c3474 bd26504b 3d638559 3c8c8607 bc145d90 3c044fdc 3e8dc0af 3d438761 3d20d499 bb1bdcd0 3dbfc24b 3d27ee42 3c66fc81 bcd26834 beb02903 bca8d7eb bd4d9e5b 3dbc5213 ba265f3c 3d9812be 3cfa3567 bd4b8b55 bc9bcc06 be1039b8 3e3867aa 3e3c8fc7 bd951315 3d8f5ef0 bbf24559 bd7cb82b be518f75 be84088f beb4d6e4 3c6c242e bd87699b bcb01142 3c3d95e0 be1e15ba 3c47afa3 be9a8f5c 3dbee7ec 3d38e748 3e552fad bcca4e67 be854892 bec6e8ac be2f8892 be0e0bd5 bdc51dff 3b9cbe68 3e288500 bd844d8b be4f0ca9 3d334db3 bdd2621c bde77b64 bebaf267 3dfce7fd 3c207542 be6026e6 3bfcea8f bd28f6cb bd90613f bdc2243a bddfdafa beb98254 bdcc927d 3dc357fa be5dcd61 bcb22d31 bbf9f25b bd5a7363 3e6401f9 bdfe3af0 beb67936 bd4fbd2a 3e6071b9 3cac4661 3db81cb9 3e24151e bbee0bf4 3da59d9e bc3fbae2 bec280e0 bd2163a2 be14f7d5 bc1b7f99 bdbd262a bdfaee98 3e01fb73 be307c6b be3a19cd 3d3446cf be4d5dc3 3e7478f8 3db4dc97 bbca4ed5 3ea5b272 bd8bde2b 3d53e39b 3d9c71b5 3d32edfc bdefb80f 3e7369d1 baf2c15c bca9298a bd2d968f 3d6a0008 bda2625f bdadc99c 3dcdb073 be1c7a04 3dd4a8ab 3da7c91e be230c43 be0d099f 3e4bdfb8 bd8a07c7 bddd1400 3dd37204 3e873132 bd86b318 3e7f7243 bd5cc58f 3e298d6a 3d992f4c bb68ef53 bd3fe962 bccb72ce bc0b61e8 bde7bd7a be31c727 bd9eefe6 bd2dbc0c 3cc30af1 3c4bba07 3d76b4e8 bdf37284 3d806d07 be240832 be11019b bca2b77e 3d95e439 bd2293bd 3e2ef494 bda2125e bd99f0f8 3dbd9608 be0e9f84 3cd7bf00 bcd999a4 be24175d 3dcd3977 3e28565b 3c892b48 3c19908a ba13e18f bca75cc3 3e0568ae bd042bb5 3e38a7c2 bd80ad2f 3a33f7fc bd08f538 3deee931 bcce2aaf 3de59f2c bdeeb6e7 3e2b133c 3e154160 3ddebf67 bce6bd6c 3de4888d 3d1ae0a5 bde1dccf 3d08acc5 3cb7ee93 3a66ba1e bdae64a6 3c8bfc98 bd10438f 3d3a64b2 3d106157 bd297058 bcdd0c07 be30bd18 bd72ca37 3cefbc6e bd5ff0c9 bd466146 bdacb599 3d1c03f6 3e0fcb53 bc8946c8 3e124225 3d8e30ff bd5b69bd bc940072 3dc2ca7d 3ccc1e36 3df9d371 bd051cc5 bdc59708 3d70cf0e 3e04f20b 3c45d0ba 3d96adc0 3dc7ee94 bbeccadd bca1efe8 bd5dee3b 3c61a0ff bcadacb5 bde0e405 be58e3b2 3d6b955d bb5e245f bd99c55c be2386c9 bdb1387b bd8a2946 3eb00783 be7a13fc bdece769 3dc41435 3e2bb4e5 3d94d5f1 bd9cc243 bd02b6fd bce74b1e bc858356 beac972a bb80f462 bd3c68ad be9fecb6 3cbba153 3dbb7aef bab4c369 bebc18df 3d8cc0ec 3dc5eefc 3e322188 baa39175 bdaf358e befc60b1 b8ff0619 3bfb8235 3e21a672 3d11968f bd7d405d 3b97deeb be234bb4 bea644f2 bdfac290 bd12d1ef 3c21ed2b bd0daca6 bbad16bb be071c0e bc908dd4 3e9333cd bbe9b2c7 3c9d2190 bdaf764f bdc5d3c4 3d8c2ed8 be85a929 bd9f2e6a 3dd452a2 bde70660 bdc7b2df bd91a7ca beb0f785 3e196cc1 3d4fe939 bd0b5bcf bdb7441a 3d9fe18a 3d98caf2 3e189419 3cc08cea bd1750e0 3e0e35c8 bc5895fc bd4b418d 3e26f86f bdad38ce bd89a741 3db75498 bc142345 3dc0b86e bca77cd5 bce10f3b 3b8e9c4b bd7bfd9c bda7462e bc059af3 bc1e9788 be25115a bdab58b7 3d4dfef5 3d0156f7 bd45d699 3d5b733d 3dc14352 3e0c1522 bd8a12af 3d2809a5 bd9d8b03 bdd09971 3c9d7dfe bbd606e1 3e296c7c be580e1b 3da7e222 bcbd4def 3c80baf6 bc28c1cf 3da033b5 3ce12389 be16aa9c 3b3d4446 3e43b9b2 bd210298 3c5193c8 3c3e321e 3d7a7a2c bd519baf bda9fa47 3cf7ccb5 bd93da9c 3cfe00c2 bca41a48 bd4e45ce bcd8aa11 bd9af1fe bd8ec49f 3d499fc2 bd302521 3cf4c137 bc83850d bd7ef87f be347e1d bd4b74ed 3c0e9159 bbbc7c9e 3d39b418 3dcafe95 bdc2b561 3e48b26b bc923cc2 3cdf1687 3cce6240 3de6967a 3b3aed08 3d7bb57e be346c62 bcb2c9f0 3db95252 bd15529f 3dd334f6 3bae2b89 beae6be0 bdcef196 bcd651c3 bd787912 be279f14 3d42b2b0 3ebdf2f4 bdb0b606 3e19a618 bc8071f5 bd3bda69 3abe7f57 bd7d11eb bd99d1d4 3de80c0e 3dd4c6f1 bd6f591e 3d996db9 bddbcf8b bd7faca6 bf316464 bd6c4306 3df3d678 3c930347 bd5071c1 3dca9f3b 3cdb4a26 bc8c1f35 3ca9e820 be247f59 3df1d3a4 bd53fa01 bdb6952f 3d6e4900 be2042b0 3cfe14d2 3cf459cf bd692de9 bdc70c0c 3e027bf3 3f07c102 be35b6d3 3cada5af bd17dd83 3ddfdf96 be28c523 3ca8e6c8 be0e3219 3db985d9 3da0e99f bdb72562 3d2bd619 3cb8b26a 3dbe7cbe bd7289df 3bab4c81 bd3528de 3cf6db85 bdc1bcc8 bd8e988f 3d4a1598 bc128f1d bcdd45a8 3d59624b bd6be995 bca7d961 bce19478 bcb1e206 bdca5c81 bd92b2bd bac5ad7e bc90e989 3b68222c bb8ce733 bd7dba6e 3cc55667 bc9e388a bcb7b95a bd86d956 3de208f3 3dc1b248 3d8c3bcc bdad1b65 3cb9fbc3 bf0b3cbf bddba656 bd674afa bdba9c56 bd81e49e 3c2fad24 bd134e78 bc8407af 3d04cdd7 bde84f25 3cbe1f55 bd8cb879 bca6c026 bca84216 be2bc199 3d908cf0 bd94bbd1 bc1025ee be0eed39 3c90ef53 3e1216d8 bdacfbfb 3da7a0ba 3e6d69f0 3d7eebc4 be418104 3d102e8e 3d93b2b5 3cc5f1fc 3cb93d0c 3ddc105a bdac6c38 3e338903 3c0e9cf0 bd8a80db 3d845ace 3d6b8cab 3d44f2b3 3cd799ac bd238019 3c9df31b 3df91365 3dab13d4 3e490ee7 3e9c916d be071226 bbe8f125 3d22ea20 3dca3bb9 bd9efcfb be02fcef bd37139b bc9e4b62 3b487994 3d0ec387 3cc3c589 bcaeee37 3d9c1335 be011707 3da6c08d be197e06 bc99efda 3d4d6e2e bd026a80 bdf1622f 3d35d048 3dd6a4f6 bc9c8dab bc9afd59 3c19b82d 3cd48460 ba4e66d3 3ca98d43 3d3e9aff 3ca8cc7a bd59949f 3c6cfa3e 3cba57d2 3e0f5874 3d074203 3da3e6b9 3d9115de 3db2ab59 3c7c8f1b bcf837a1 bd788143 3b8a6ea9 3e0683cc bdf4b70d be0bf5c3 bcc2a8b1 bc930c75 3daf72af 3dc5cde1 bcb7ea1a be3550a7 3e757a9c bd9c8322 bd33f8aa 3cfd7092 bdb7ef84 bd0ffb95 3cf4f16a 3d42b391 bd78c29c 3d95c533 bc983c69 bd5feeae bdbe6498 3e45026d 3c846457 bdb7c5a4 bd19d0c4 3d6e429d bdad00bc 3cfaaf6b bdd4a173 3e98f114 bd24ac51 3e24d484 3c069e5f be5714f8 bdc75e27 bd8c90ca 3ccbef03 bc88bc2f bdb1f332 3d97133a bdef1dbc bd5e76e2 3e8531e1 3e088a95 bdab39aa 3e1d8798 be51a0de 3bc59316 3df40c1d 3b41a2ce 3e5cbcc1 3cf3ca37 3e429968 39211f93 bcf7b9a4 3ce56b8a bd9b8a42 3d00cd69 be299c0a bde10101 bd6a9fa3 3dd644e8 3c89515d bc6c01a7 3debb1eb 3b40f3c9 3d1fec01 3ea902ed bc3742c6 be4ddc04 3e0ddd60 be1287ac bd8d1b9a 3d803782 3e9272a3 3e89ff0a 3e200ce6 3dacb5e1 3d39a5f7 3c4f193b 3d240246 bbfb0c67 3d9c3002 bcceda07 3dc2906f bd3bf0e5 3edad411 3e6260c3 bd3b0383 bd64a52e 3def02cb bb04aff2 bdb796ae 3df0d801 3e5cd44e 3d64169f 3e352722 3beaa36e babc4843 be442f48 be98b35a bd17b838 3e39f464 bd66cbdd 3e9d19c2 3eb1795e bd5e7d1e 3dd5d9fd bd6befb2 3b110351 bc88e975 be0360f0 3e0b1526 bda71684 bd53de54 bd03cff5 be1e65cb bec0eb9f 3cd72f5b be04e2e5 bcfe2c80 bd87877c 3e92fba4 3c6949d2 3e41ce95 bd878788 be3da853 3d62bad8 bee3aaef 3e05b62c bd9230b6 3cec30b6 bd53769e bc9b7529 3ce6914d bde62822 bdee569a 3d44ea3e be266e2c be26f232 bbed482a bab6cad5 ba2b8302 bc97dbca 3dc05d77 be9d6ac4 3ddf57df 3d149966 be72fde4 be0b4e5f beb04101 3e500e1b be666f7d 3d031cad 3e111976 bdded3c5 bd975ba5 3d2c5078 be821ad6 3a708eb6 be6e7018 bdd1df99 be3ab46f 3e65b042 3e6df726 bddb122f bda15319 bd5f5291 bdf63e22 bd1c4ba2 3dff91c4 3e223dcb 3d2b43e4 bdbd2752 3e848c4a bd20584f 3d588267 bda4ebe8 be7d7f72 3db67334 be874317 3dd8520c be0bf651 bb91512a 3d5bfc7f 3d9a3304 bdf223d8 3d870c41 be47bf6d be8560ce 3da457a1 3dc5c2c3 bd610e7d bd2bd4d2 bd92efad bd375bca 3dff1a53 bd6b6bd3 3d04c9ee 3ed60c89 bd569a32 bcf35734 3cbabfd3 be16a96c 3d75bb5b 3ad47881 bedcb096 bd7e9a6a bdaf9426 bc5372a7 3cd56cc0 bd243226 bd508800 bd03bb2d 3de5e10a bda417e2 bd91da00 be27214f bdc63c29 bd162bc8 3e71a5cf bcabbecf bc893905 bd98fdd4 3de7d8cd bd89b0dd bebdb243 3e8583d3 3ecedb2e 3d83ff7a bcb5edc0 3e10ad66 3e98b284 3bc9674c bcd541e0 3dd82789 3cefe718 3e4dbe4e bcfeaa70 bcc657d3 bd222215 bcda5b64 bbb0ae20 bda96783 3c7d894d bc94e42d 3d89d521 3b86bedb 3ced905d 3d8e70e0 bd3b46ba 3d4107cc 3ecc8dc6 3d0441a2 bdb53ff3 bd62784b bcb3c58e bd3df717 3c5483a2 3b8fbd53 bb488034 3ca2480a 3d906e25 bb9ddb6c bd966244 3c7e534d 3c264bce 3ccb4f70 bca7fcec 3c3b5ad2 3b0ecfd9 bd273fd2 3c8f0ff7 3d197361 bd182e18 3f1fc1bc 3d9d2bde bda2e842 3c59599f 3d7b03b1 3a4984a7 3dc24b30 bd9f3c16 3d90cdbd bbfc291b 3bf9cffe 3ca190bd bcac5eaa 3d1951eb bce0614d bd248c10 3d672290 bd4b5f2c bcf126f4 3d0d7b59 bc8908e9 bd80db32 3d8e427b 3d203a1b 3d32c9ef 3c812bd2 bc242ead bcdf5d2a 3bda43b9 3d47ef0d bd6b9f5c bd05b774 be003ce7 3d3bb812 bcb0cf83 3d84dc10 bd38d966 bd87fbea 3d4f8bbe 3d55b866 be3dd4cc 3c51748a 3c32d34c bb354c81 3dba2734 bd83af7d bd6d3bee 3c2aecc3 3d7e2136 bf189679 3c4149da 3e2d6d1f bee81fc0 bc9d9ff3 be1e5438 be4b9902 3e6199a1 3d9c0ba2 3e209e39 3ce246ff 3c6a9e79 bd2b41d2 bcadb9e2 be19f939 be09a3ec 3e7c7fa0 be1c3fad bda8dcb2 bd68aaad 3bcebfbc be2b7905 bcd8a4f5 bd215ee6 be4bded6 bd4b415f 3db49386 3d623991 be18702a 3c01dc81 3e4b932d 3ee539a9 beb722fb bdb2503d 3df124f9 3de0d90b bda49bec bd880901 3d211d99 3bdf942d beae89b4 3dd1be09 3d0e1723 bcf525b0 3d674f53 bdf74301 bdf16131 be0c8213 bdfe54ae 3e2a9809 3dc30359 bd26e10b 3d9587f6 3e7be765 3e577eab 3c819ba7 bd8a7e56 be5ea0d3 bd769a33 bc621c4a 3e00ce0a bd82f034 bdc5ab21 3c653d60 3ca63bae 3d71ddcd 3cfd7492 bcc23459 3bb070c8 3c58b537 be18cee3 3dab3d5f be1aefbd be060f51 3d797b87 bde868f4 bdcde268 3dd8f0fa bcf5257a 3c33a9a4 bdd0fa71 bda15aa1 be314e9a 3cfbd897 3d844f58 be0e1205 3e83bebc 3d1e2141 3eb3e93f bd44568e 3dc720e6 bc7dd05d bd259b3b bcf1dce0 3dae474a 3dd72ec2 bb5db021 3c7907c2 3d17017f be211354 3e006d4c beebcca5 ba9e05e4 3cb50cda bd1ad78f be2ae5a3 3e000cb9 bc3c4449 be2aae6e bcfa3291 be17ed5c 3a9f333b 3e047b6a be0aefba ba062029 bc05745f bdea16e1 bda891b7 3e0e3718 3b925bcf 3d92490a bd34c0b7 bbfa9f7b 3dcda207 3edd7849 3d81c1eb bdf713f6 3d716fa0 3cf62433 3d335a9a bcf91613 bda5e61c 3c1e1ff1 3e982a57 bea5a2a0 388dcd3e bdb90438 bdbfd051 3b05aa68 3cec8bfa bcccf3e0 bb40dd8e 3d1dfcd1 3ca906ce be55cb51 be3eb1b5 3dc1bbed 3b0ce4ca bd87043b 3dd9722f bd94d56d 3e17a62f 3cc347fe 3da93d36 bdd6deed 3be06c59 3d8bee24 3da3cc2e bcbbbe01 3dcddd10 3da355be be60607a 3d015af8 bd84a483 3d1c054e be3bed39 bee8403d bd074ccc bd414817 bd89e7e1 3db3a390 bd06f0fb be516ab5 be24b51d be7cb68e 3cc3c74a 3dbc230e 3db26706 3d102edc 3c081250 3d988642 3d425518 bc7dfe60 3c78717d be236d9a bd9a4760 3d7a7758 3e626b61 3e037d4d 3d855c94 bd03a873 be69c431 3b9aa587 bd413ae9 bcfe37e7 3daa1350 bda22983 3c9dd8fc 3d39e100 bc00defd 3e36833f bd88f8c1 bd8edde0 bc00a4a6 3cc108fd bdd68a06 be017850 bbb293a4 be4ae146 bc40c21e 3d84f59d 3df68530 be029404 3d8e7a4a 3d3b9935 3d81f07a bcf0e25e 3d5433fc bd09c89b 3c63ebfd be0e04e2 3da5fcde 3e10a24c bdc7fe7e 3d1102f8 bd9836e9 bda83018 3d3b074b 3e1bcfab bc1dfd72 bd9234a9 3d8025d6 3d3c6efa bd4f7fe2 3b3e9f56 3ca26eb5 bced0a4f bcb6629b be139a78 3ddaf5d4 be0e3a36 3c78806d bdd1a45e bd00717f bd935067 bd68c359 bd8c5811 3c9c7820 bd1e038a 3d7a30f1 3b9fd611 bcf02c2a be1208c2 be69b160 3d952b59 3c584b03 bd7eafc3 3c77610f bdee9bef bdc2b9eb 3b04a754 bd7f8286 bdaabf91 3d0104a9 3d675081 bca35ff8 bcaa7e73 bc8d5f41 3eb032af bd57eeef bd4be7de beb5c724 bd0cf9ef bd2d4878 3d3523d9 3c9401bf 3ce236a1 be579f74 bd37b143 bd82b21f 3d44838d bc97513b bd8d8bb9 bdf87c28 3da40085 3e9946b2 bd11d24a 3d95e363 3d9b0c6f 3d74c17f bd1529d2 3bee0ffd 3c0a1471 bb9b659b 3d7f0ee6 3c3020a3 3d20297a bd98cc16 3cc53a31 3cf1d35e 3f3331e2 bd143424 3d46bfea 3d46dad9 3a99dcf6 3b469fba bcc16a2b bc7ca6ba 3d01ee3e 3cf513df bdb75f48 3e5757cc 3d8b8abd bcc00685 bc2d634b bcb96bf5 3d868c05 bec5c559 be9ddd74 bd6cb20e be0b06ac 3a820cb5 3d86b82a bdec97da 3d8eabe3 bc841b4c bde42a01 3da89147 3b8fb8ff 3e22c5f8 bd1f6fde 3c8ca5f5 3e925b06 bdcbc6df be468269 3ef53471 bdefead8 3d128dc4 be2110db bc9bca98 bd2ea7d2 3e2e91d5 3e48de32 3d095bf2 be9e522e be767a41 bdbb6fd2 bca733c6 bd79679a be8816f8 3e3c638b 3e08eebb 3d913d78 bdee42ee 3d15d4e8 3cbcb150 3e091250 3c785206 3e8cd3c5 bd72990c bd63922b 3c0b2509 bade48ec bd5314d6 bdeddb76 bdcb7a4e bdf02fb3 3e2a40d1 bca49a65 3da29ffc bd245f1f bc89d0bd 3e79609e 3e93657a 3c23abf0 bdfdbdba bd53aef0 be1a1427 bc4afbee 3dbfcebd bb908b77 3e10ed9f 3dea742b 3e18e9f3 bd98334a bc82499d bc05fc75 3d095b16 bde32847 be037411 3e28ef04 3db1e211 3d2fbbd1 3e071863 3deb0a13 3eb52e8f 3ddf07a6 3e05035f bdcd13ff bd2e6d34 be2522cd 3e5078fb 3e1915fa be88916b bcc261a4 3d8b11dd bd8e1a37 3dc1313f bd8924dd bc853bfc 3dd30ba5 be4e8e4f bebb54c6 3db2466b be582ea0 3d4c2d1a 3df48a67 bcc54f88 3e07a323 bbaf8a80 bdf63054 bbc9e7b3 3edad2ff bcbb0761 3d076fe3 3e074c3e bcece59d 3d4373dd 3e041445 3cd88771 3ede1889 bdb24eaa b9996703 bd8ca158 bddba2b0 bd289914 bc57298f 3dbe9192 3cd8d0db bbcf7217 3e0e8bc8 be20f4f9 bce24333 3d8535f6 bd64b338 bc3e5402 bdde430a bc8e49b7 3d3179d4 bdf2ff1c 3ceeb82e 3cf6f7bd 3bc582e3 3be1da1a bc7a3240 bd20b653 bdc486ef bdf5ccc7 3d9bd81b bca3451c 3c33bef4 3e2f23c6 3dd06f0c 3d8b304c bbcb69f7 bd9d61f2 bdb35893 bde4d791 be5fae42 be5031d5 3e4c32ed 3c67a587 bdbbf448 3df5a6ee ba65be31 bd8ae2c0 3c32cc20 bc1351e3 3bb3da8d 3d8999da 3e079c47 3d31c3c1 be0bf09f bda40a84 bd0de271 be22abf5 be91e1e0 3ce8a2d0 be7132a7 bc82c42f 3e9edc69 3d94d50e 3c4a078e 3dce322d be8dfa59 bccbe868 3d572633 3dbe766e 3de5e263 3dd3662e be87d49f 3d1af39d bdcf6d95 3ce67487 be0cb6c6 3e69e10a bda6122b 3d354a30 3d22d391
body.stage1.5.4.weight 64 3e459398 3e07040e 3e9a7963 3e9fd6b3 3e9fdd50 3e99731f 3e61e5e8 3dbb6714 3e8e3d43 3e6ac07e 3e8f3590 3e77229a 3ec6bbf5 3e40efa3 3e952083 3e8af90f 3e1b20b2 3debe251 3e8ea349 3e4e74a0 3e7c4d32 3eb2c9f5 3deccc8c 3e4f3ef0 3ea3fc90 3dfd5c5f 3ea7630c 3de00522 3e860370 3e0dc29d 3e0aebc0 3e1aba3a 3eb31a1f 3e8b5dcd 3e7e707f 3e8d2e66 3e7f48af 3e305a18 3e6261ca 3eb695aa 3e61720c 3e956775 3d9ff82f 3e8ab527 3e5b4473 3e105941 3e9e23a9 3e409c99 3ea7cd66 3e4d11be 3e0db236 3e8bc4ea 3ddbb215 3e76e07a 3e93dd76 3e052c69 3ea874c8 3e9b3e6b 3e8e3fff 3d903f78 3e97c6b7 3e1b3a7c 3e7040aa 3e6e773a
body.stage1.5.4.bias 64 3e7ec6e7 be2c8a32 3dc27a2a bd217d36 3dea08dd be07aef3 3e4f74a2 3e48fa89 be59e520 bda32016 3d1c39a1 bd68b49f 3e118507 3ea857fc bdfd70d6 bdc179a0 3e41eae2 3e6b98c3 bcaeb35f 3c9e3a1f 3cf08776 be72420f 3e955031 bdb87fbc bcdfa1ab 3e91055d bdb743a5 3ea6c90c be4d13ca 3ea15037 3e9e06ab 3edae6ac 3da31628 bdba21a4 3e253704 be783db4 3e4098c0 3df75d0f 3e6d7899 3e04788a 3d7b2ea2 3d750ffb 3e95cc05 3cadfaa9 bdd2675e 3e3a4e4b bea516fe 3e6b8bcb bd0cf0b7 bd1a9ba1 3e2a1336 3c9b65c7 3eaa54eb 3e0f332d be2a2a0c 3e09b729 3de09f34 be56cd38 bd069d1b 3eaca2d8 bd86dec3 3eb9ad76 be05be48 3dcd9b95
body.stage1.5.4.running_mean 64 bd32bbdf 3d98afd0 bd4be1a6 bc7a817a 3e1c6b42 bd703ed7 3f125122 be0ca1d7 be1fc63f be81a507 bd9f6212 3e089c64 3f2c59a6 3ecb5b2d 3d7d790a 3e850a4b 3cf0d0db 3e9d7b8a 3ed13cf9 3e6b793c 3ec72579 beb3153a bcef3fa7 3ec78947 be180e03 bf221f04 3e6fd82a 3e918ba0 3ead3aff be8786fc be855a4e bed48a09 be4f972e bda66882 be9b2015 3d9247ac bdba293e be76c3f2 3e93d5b4 3e8c8bb6 beaf3566 3e8c61ab 3e49a3b2 be9a49d1 bd307f35 3e85ab21 beb073b7 bd5c52d5 bdffee57 be407b36 3e4bbfc5 3ce863a9 3d748095 be0fca6c 3efa8c36 3e50de30 bea2221f be70c7fa bede6002 be203173 3ebb646f 3dcbf746 3f12ff43 be815aad
body.stage1.5.4.running_var 64 3d8ac20b 3cdf40b5 3dda2915 3e22ea5a 3dbcadf7 3dc54fe9 3e27a26c 3d877aac 3dc56ac5 3d9f4889 3d689a32 3d54fee3 3ed4a721 3e59717a 3e04e438 3d944485 3d500d90 3d3ff853 3dead11d 3d8a225e 3d4292b7 3dbe603b 3dc98954 3df8ae24 3e097e23 3d3aa51d 3e5782cc 3dd3742c 3e230e77 3d77a131 3da23801 3daf2a24 3e828374 3e0ac5a7 3db41991 3d699d47 3d5b7994 3d4e01d5 3de37aa2 3e5d1894 3dba20f5 3de0b383 3d44a69a 3dbd04a1 3e150813 3dc6d250 3ea3c3f6 3d79cb62 3e2fe017 3d6fe3c4 3e07a5ab 3d48fced 3dced0f9 3e0f42e9 3d8e2ae4 3dbb7d82 3e281d1e 3e417d1f 3e041716 3dbf90f3 3da58e13 3df1fdf5 3e1a94fe 3dae12cb
body.stage1.5.4.num_batches_tracked 1 48266200
